'<pad>_'
'<EOS>_'
', _'
'_'
'the_'
'._'
'.  _'
'of_'
'að_'
'og_'
'a_'
'to_'
'í_'
'and_'
'in_'
'sem_'
'á_'
'er_'
'. _'
'um_'
's_'
' (_'
'-_'
'/_'
'til_'
'or_'
'for_'
'._'
'be_'
'eða_'
'við_'
') _'
'með_'
'  _'
'is_'
''_'
't_'
'with_'
'_'
'fyrir_'
'1_'
'r_'
'i_'
'I_'
'ekki_'
'on_'
'you_'
'm_'
'2_'
'that_'
'The_'
'skal_'
'shall_'
'e_'
'eru_'
'as_'
'by_'
'af_'
'not_'
'n_'
'4_'
'd_'
'3_'
'are_'
'því_'
'ar_'
'an_'
'it_'
'ing_'
'en_'
'ð_'
'u_'
'ur_'
'5_'
'ed_'
'?  _'
'?_'
'það_'
'this_'
'should_'
'from_'
'at_'
'which_'
'Ég_'
'have_'
';  _'
'ir_'
'frá_'
'fram_'
'eftir_'
'mg_'
'hefur_'
'y_'
'may_'
'ef_'
'6_'
'var_'
'Member_'
'hafa_'
'verið_'
'A_'
':  _'
'hjá_'
'es_'
'your_'
',_'
'þú_'
'úr_'
':_'
'), _'
'st_'
'þess_'
'þar_'
'other_'
'ég_'
'getur_'
'gr_'
',_'
'skulu_'
'0_'
'use_'
'l_'
'(_'
'ið_'
'Article_'
'if_'
').  _'
'You_'
'was_'
'out_'
'hann_'
')._'
'been_'
'sé_'
'Í_'
'all_'
'inn_'
'Directive_'
'na_'
': _'
'vera_'
'any_'
'In_'
'used_'
'has_'
'patients_'
'samræmi_'
'one_'
'States_'
'g_'
'Ef_'
'- _'
'can_'
'8_'
'!  _'
'me_'
'% _'
'þegar_'
'information_'
'þeim_'
'meðferð_'
'up_'
'nota_'
'It_'
'al_'
'7_'
'such_'
'ng_'
'mgr_'
')  _'
'10_'
'ri_'
'ly_'
'c_'
'than_'
'vegna_'
'ra_'
'b_'
'No_'
'num_'
'must_'
'they_'
'Annex_'
'eins_'
're_'
'!_'
'treatment_'
'their_'
'; _'
'following_'
'ni_'
'Commission_'
'viðauka_'
'lið_'
'Þú_'
'upplýsingar_'
'yfir_'
'where_'
'its_'
'Það_'
')_'
'notkun_'
'If_'
'will_'
'taka_'
'accordance_'
'9_'
'products_'
'þetta_'
'þér_'
'see_'
'no_'
'dose_'
'koma_'
'data_'
'þeirra_'
'were_'
'sjúklingum_'
'upp_'
'ml_'
'under_'
'sjá_'
've_'
'more_'
'k_'
'into_'
'EC_'
'tilskipun_'
'take_'
'áhrif_'
'þau_'
'ion_'
'do_'
'Ekki_'
'varðar_'
'after_'
'Við_'
'út_'
'my_'
'þá_'
'Regulation_'
'State_'
'time_'
'EB_'
'when_'
'má_'
'C_'
'sér_'
'This_'
'll_'
'kafla_'
'samkvæmt_'
'referred_'
'down_'
'B_'
'those_'
'þær_'
'us_'
'svo_'
'he_'
'these_'
',  _'
'provided_'
'þig_'
'verður_'
'o_'
'including_'
'gera_'
'know_'
'we_'
'only_'
'undir_'
'requirements_'
'ja_'
'S_'
'appropriate_'
'12_'
'viðeigandi_'
'EEC_'
'EBE_'
'voru_'
'nar_'
'Þetta_'
'nu_'
'get_'
'test_'
'efni_'
'Community_'
'ins_'
'innan_'
'eftirfarandi_'
'nn_'
'mér_'
'before_'
'hún_'
'within_'
'ation_'
'what_'
'system_'
'there_'
'necessary_'
'þ_'
'., _'
'II_'
'risk_'
'hafi_'
'What_'
'section_'
'so_'
'set_'
'án_'
'measures_'
'like_'
'We_'
'product_'
'tion_'
'ðu_'
'h_'
'gildi_'
'20_'
'conditions_'
'also_'
'first_'
'... _'
'áður_'
'x_'
'hvort_'
'case_'
'type_'
'here_'
'between_'
'milli_'
'right_'
'30_'
'stað_'
'rs_'
'paragraph_'
'geta_'
'sins_'
'who_'
'ert_'
'ndi_'
'mig_'
'hluta_'
'but_'
'séu_'
'competent_'
'his_'
'during_'
'hér_'
'just_'
'each_'
'point_'
'einnig_'
'him_'
'ensure_'
'Hann_'
'market_'
'þessa_'
'un_'
'taken_'
'don_'
'about_'
'European_'
' - _'
'tryggja_'
'available_'
'He_'
'safety_'
'ic_'
'doctor_'
'L_'
'years_'
'order_'
'allt_'
' „_'
'þeir_'
'mælt_'
'100_'
'öðrum_'
'without_'
'reglugerð_'
'p_'
'komið_'
'þessum_'
'unum_'
'number_'
'fara_'
'period_'
'ns_'
'ment_'
'them_'
'nr_'
'ber_'
'tilskipunar_'
'50_'
'two_'
'services_'
'ræða_'
'D_'
'Þegar_'
'particular_'
'nni_'
'need_'
'kg_'
'relevant_'
'For_'
'authorities_'
'able_'
'15_'
'national_'
'had_'
'13_'
'required_'
'day_'
'ast_'
'taking_'
'E_'
' % _'
'made_'
'over_'
'R_'
'got_'
'ði_'
'inu_'
'þessari_'
'ætti_'
'provisions_'
'ne_'
'hægt_'
'control_'
'veita_'
'te_'
'inniheldur_'
'f_'
'notað_'
'non_'
'her_'
'go_'
'blood_'
'apply_'
'That_'
'water_'
'tíma_'
'studies_'
'least_'
'aðildarríki_'
'solution_'
'account_'
'öllum_'
'einkum_'
'application_'
'Að_'
'And_'
'D'
'„_'
'viðkomandi_'
'gefa_'
'body_'
'andi_'
'provide_'
'effects_'
'authority_'
'P_'
'11_'
'varðandi_'
'specific_'
'le_'
'kerfi_'
'III_'
'lega_'
'T_'
'way_'
'laid_'
'given_'
'fá_'
'Hvað_'
'treated_'
'25_'
'new_'
'Til_'
'18_'
'ta_'
'Where_'
' ‘_'
'lyf_'
'Council_'
'...  _'
'ry_'
'..._'
'level_'
'inni_'
'same_'
'gerð_'
'clinical_'
'þjónustu_'
'þarf_'
'means_'
'hvað_'
'age_'
'kemur_'
'equipment_'
'based_'
'ts_'
'rétt_'
'notuð_'
'kröfur_'
'date_'
'basis_'
'N_'
'Whereas_'
'þessarar_'
'starfsemi_'
'some_'
'man_'
'bara_'
'Og_'
'recommended_'
'ce_'
'nna_'
'ist_'
'does_'
'þessi_'
'would_'
'want_'
'technical_'
'study_'
'financial_'
'saman_'
'nema_'
'ions_'
'air_'
'rules_'
'make_'
'hans_'
'gegn_'
'concerned_'
'They_'
'fer_'
'O'
') (_'
'using_'
'sjúklinga_'
'hana_'
'dag_'
'ble_'
'V_'
'Á_'
'ráðstafanir_'
'nir_'
'containing_'
'subject_'
'ons_'
'gilda_'
'14_'
'ákvörðun_'
'ákvæði_'
'injection_'
'could_'
'.(_'
'part_'
'animals_'
'I'
'ted_'
'substance_'
'rnar_'
'aftur_'
'vehicle_'
'ers_'
'certain_'
'M'
'tilliti_'
'reactions_'
'protection_'
'possible_'
'meðan_'
'einu_'
'de_'
'contains_'
'being_'
'back_'
'L'
'Do_'
' = _'
'well_'
'levels_'
'assessment_'
'reglur_'
'production_'
'procedure_'
'per_'
'hátt_'
'did_'
'administration_'
'G'
'24_'
'þessu_'
'verða_'
'value_'
'public_'
'procedures_'
'kveðið_'
'gefið_'
'En_'
'þó_'
'nt_'
'mat_'
'grundvelli_'
'third_'
'ss_'
'allar_'
'active_'
'verði_'
'notkunar_'
'human_'
'exposure_'
'There_'
';_'
'urinn_'
'through_'
'sett_'
'include_'
'group_'
'fengu_'
'w_'
'substances_'
'la_'
'honum_'
'end_'
'? _'
'henni_'
'applicable_'
' _'
'önnur_'
'ín_'
'ty_'
'eftirlit_'
'T'
'M_'
'But_'
'think_'
'therapy_'
'skilyrði_'
'lausn_'
'di_'
'ate_'
'rar_'
'off_'
'nar'
'reported_'
'hverju_'
'sig_'
'less_'
'health_'
'days_'
'adverse_'
'R'
'ina_'
'V'
'results_'
'ine_'
'effect_'
'approval_'
'annarra_'
'þannig_'
'tests_'
'ies_'
'both_'
'aðila_'
'K'
'öryggi_'
'áfram_'
'samhliða_'
'quality_'
'name_'
'When_'
'ár_'
'service_'
'now_'
'increased_'
'aðeins_'
'activities_'
'“ _'
'work_'
'ive_'
'gonna_'
'91_'
' '
'Því_'
'year_'
'uð_'
'related_'
'innihalda_'
'established_'
'come_'
'total_'
'ráðsins_'
'rannsóknum_'
'life_'
'defined_'
'ásamt_'
'considered_'
'H'
'F_'
'ting_'
'three_'
'report_'
'person_'
'mean_'
'how_'
'gerðar_'
'carried_'
'amount_'
'O_'
'All_'
'31_'
'2003_'
'ára_'
't'
'sama_'
'mm_'
'hennar_'
'gögn_'
'framkvæmdastjórnarinnar_'
'farið_'
'Já_'
'months_'
'going_'
'framkvæmd_'
'concerning_'
'B'
'ða_'
'tengslum_'
'setja_'
'ness_'
'ity_'
'eiga_'
'breytingar_'
'whether_'
'place_'
'observed_'
'liðar_'
'lagi_'
'innar_'
'good_'
'animal_'
'Hún_'
'16_'
'Þessi_'
'entity_'
'ent_'
'H_'
'ður_'
'our_'
'medicine_'
'fleiri_'
'60_'
'21_'
'sinni_'
'people_'
'list_'
'leggja_'
'am_'
'A'
'öll_'
'therefore_'
'okkur_'
'ingu_'
'heimilt_'
'either_'
'einn_'
'cases_'
'ðum_'
'very_'
'vehicles_'
'tilvikum_'
'listed_'
'high_'
'enn_'
'N'
'veg_'
'tekur_'
'reference_'
'medicinal_'
'anna_'
'Union_'
'Decision_'
'ti_'
'rate_'
'rannsókn_'
'method_'
'Aðildarríkin_'
'þeirri_'
'Þ'
'specified_'
'regard_'
'monitoring_'
'eigi_'
'access_'
'95_'
'tu_'
'severe_'
'ná_'
'niðurstöður_'
'meira_'
'hættu_'
'hætta_'
'hef_'
'annað_'
'administered_'
'acid_'
'17_'
'weight_'
'until_'
'tekið_'
'she_'
'red_'
'menn_'
'manufacturer_'
'having_'
'P'
'Nei_'
'þið_'
'tablets_'
'stendur_'
'se_'
'komi_'
'gas_'
'ga_'
'Bandalagsins_'
'then_'
'systems_'
'single_'
'mjög_'
'meta_'
'light_'
'increase_'
'gert_'
'fengið_'
'90_'
'transport_'
'long_'
'halda_'
'due_'
'common_'
'aðildarríkin_'
'another_'
'þörf_'
'whereas_'
'svæði_'
'skin_'
'intended_'
'give_'
'du_'
'development_'
'daga_'
'áhættu_'
'vörur_'
'tell_'
'skrá_'
'rannsóknir_'
'mun_'
'gjöf_'
'dí'
'area_'
'"_'
'potential_'
'ors_'
'maximum_'
'general_'
'framleiðslu_'
'combination_'
'approved_'
'40_'
'Ó'
'prior_'
'efna_'
'ations_'
'applied_'
'ability_'
'Evrópu_'
'EU_'
'28_'
'yfirvöld_'
'tur_'
'side_'
'land_'
'fyrirtæki_'
'disease_'
'because_'
'Y'
'Er_'
'000_'
'security_'
'second_'
'nce_'
'management_'
'lyfið_'
'line_'
'food_'
'ck_'
'change_'
'Yeah_'
'E'
'verkun_'
'stu_'
'reglugerðar_'
'pressure_'
'performance_'
'mín_'
'krafist_'
'further_'
'S'
'75_'
'Á'
'vil_'
'tt_'
'sviði_'
'similar_'
'renal_'
'nauðsynlegt_'
'methods_'
'magn_'
'hluti_'
'form_'
'X'
'Well_'
'C'
'þessar_'
'unar'
'tions_'
'rðu_'
'received_'
'plasma_'
'pain_'
'jum_'
'húð_'
'criteria_'
'contact_'
'associated_'
'X_'
'How_'
'98_'
'2002_'
'. - _'
'ðir_'
'upplýsingum_'
'never_'
'hours_'
'children_'
'breytt_'
'Oh_'
'HIV_'
'vel_'
'persons_'
'ma_'
'láta_'
'hvert_'
'fyrsta_'
'eitt_'
'below_'
'aðra_'
'against_'
'above_'
'To_'
'F'
'átt_'
'uppfylla_'
'starfs'
'nnar_'
'lýst_'
'losun_'
'li_'
'legal_'
'kom_'
'immediately_'
'fyrstu_'
'framkvæmdastjórnin_'
'countries_'
'alla_'
'þessara_'
'ðar_'
'vial_'
'unnt_'
'segja_'
'oral_'
'ls_'
'leg_'
'et_'
'different_'
'device_'
'aldrei_'
'added_'
'These_'
'As_'
'th_'
'standards_'
'skyni_'
'skammt_'
'respect_'
'purpose_'
'miðað_'
'low_'
'compliance_'
'activity_'
'Framkvæmdastjórnin_'
'ábyrgð_'
'ous_'
'ngar_'
'lyfja_'
'included_'
'ia_'
'hvaða_'
'held_'
'free_'
'country_'
'2007_'
'2006_'
'' _'
'þann_'
'áætlun_'
'weeks_'
'veit_'
'trade_'
'sýna_'
'relating_'
'impairment_'
'il'
'efnum_'
'd'
'concentration_'
'bæði_'
'bandalagsins_'
'aðrar_'
'analysis_'
'amended_'
'ally_'
'So_'
'ur'
'standard_'
'replaced_'
'operator_'
'on'
'law_'
'komu_'
'known_'
'ka_'
'inum_'
'gæti_'
'eingöngu_'
'co_'
'annars_'
'Come_'
'300_'
'Þeir_'
'Þar_'
'waste_'
'unless_'
'toxicity_'
'síðar_'
'skammta_'
'points_'
'medicines_'
'maður_'
'limit_'
'les_'
'geti_'
'emissions_'
'contract_'
'aukaverkanir_'
'Di'
'öðru_'
'stöðu_'
'once_'
'minimum_'
'infection_'
'hvernig_'
'every_'
'ds_'
'ding_'
'affect_'
'Al'
'á'
'too_'
'tillit_'
'tic_'
'say_'
'ring_'
'purposes_'
'prófun_'
'p'
'material_'
'ir'
'arinnar_'
'Your_'
'Pa'
'Now_'
'Committee_'
')_'
'values_'
'to'
'territory_'
'subjects_'
'staðar_'
'said_'
'own_'
'ol_'
'lækninn_'
'lly_'
'il_'
'framkvæmdastjórninni_'
'er'
'eigin_'
'decision_'
'costs_'
'content_'
'comply_'
'búnaður_'
'Ne'
'Da'
'70_'
'2'
'while_'
'viðbótar'
'tækni_'
'settar_'
'response_'
'programme_'
'ngu_'
'most_'
'meðferðar_'
'heart_'
'ge_'
'engin_'
'einungis_'
'draga_'
'daily_'
'da_'
'börnum_'
'according_'
'Not_'
'G_'
')(_'
'! _'
' -_'
'varða_'
'start_'
'leyfi_'
'infusion_'
'ch_'
'cause_'
'authorised_'
'action_'
'Með_'
'-, _'
'þætti_'
'utan_'
'upplýsinga_'
'sa'
'result_'
'process_'
'love_'
'legt_'
'last_'
'goods_'
'g'
'degi_'
'aðferðir_'
'God_'
'ökutæki_'
'verð_'
'unit_'
'töflur_'
'stop_'
'son_'
'segir_'
'plan_'
'marketing_'
'hvers_'
'hi'
'haft_'
'grunn'
'determined_'
'cy_'
'concentrations_'
'as'
'aircraft_'
'VI_'
'She_'
'Ro'
'Lo'
'200_'
'yl'
'væri_'
'unar_'
'tu'
'skráð_'
'samþykkja_'
'mismunandi_'
'materials_'
'liggja_'
'is'
'id_'
'function_'
'expected_'
'events_'
'einkenni_'
'conformity_'
'bæta_'
'aðgang_'
'Table_'
'K_'
'ESB_'
'Bo'
'23_'
' + _'
'ákvarða_'
'vita_'
'virkni_'
'virka_'
'sömu_'
'sá_'
'skv_'
'site_'
'ru'
'request_'
'no'
'mis'
'hendi_'
'heildar'
'full_'
'flokki_'
'far_'
'falla_'
'dýrum_'
'business_'
'bu'
'breyta_'
'aðferð_'
'authorisation_'
'alfa_'
'Patients_'
'However_'
'tegund_'
'symptoms_'
'sure_'
'put_'
'placebo_'
'ni'
'meiri_'
'hætti_'
'fjölda_'
'even_'
'certificate_'
'benefit_'
'aðildarríkjanna_'
'already_'
'addition_'
'Sam'
'ætlað_'
'ykkur_'
'vin'
'sýnt_'
'sn'
'skerta_'
'ses_'
'samþykkt_'
'receiving_'
'mikið_'
'men_'
'hliðsjón_'
'her'
'event_'
'equivalent_'
'con'
'che'
'aðildarríkjunum_'
'af'
'adopted_'
'additional_'
'Y_'
'IAS_'
'Each_'
'veitt_'
'va'
'um'
'thing_'
'skammtur_'
'sis_'
'responsible_'
'open_'
'of'
'nú_'
'minn_'
'meet_'
'kosti_'
'klst_'
'inntöku_'
'home_'
'existing_'
'energy_'
'doses_'
'changes_'
'auka_'
'ant_'
'An_'
'Agency_'
'þinn_'
'Í'
'völdum_'
'vir_'
'vatns'
'undir'
'töflu_'
'til'
'tala_'
'something_'
'significant_'
'sa_'
'pre_'
'plant_'
'per'
'much_'
'ljós_'
'le'
'king_'
'ingar_'
'implementation_'
'ill'
'higher_'
'greiningu_'
'fylgja_'
'full'
'field_'
'experience_'
'era'
'consumption_'
'car'
'am'
'a'
'To'
'Pro'
'Mér_'
'Hver_'
'Don_'
'Af_'
'150_'
');  _'
'þriðja_'
'út'
'ákvæðum_'
'xi'
'units_'
'sti'
'species_'
'obtained_'
'measured_'
'm'
'landi_'
'greina_'
'gildir_'
'endur_'
'dýra_'
'benefits_'
'Section_'
'Sa'
'AR'
'valdið_'
'storage_'
'so'
'skil'
'regards_'
'prófunar'
'present_'
'party_'
'pack_'
'nts_'
'mönnum_'
'minnsta_'
'mass_'
'lengur_'
'leitt_'
'ings_'
'höfðu_'
'hafði_'
'fullnægjandi_'
'frekari_'
'fen'
'enda_'
'electronic_'
'einingar_'
'efficacy_'
'búnað_'
'aðstæður_'
'ated_'
'Authority_'
'2004_'
'2001_'
'þátt_'
'ý'
'ör'
'working_'
'whole_'
've'
'tæki_'
'tilskildu_'
'tilkynna_'
'ter'
'sérstaklega_'
'still_'
'position_'
'operators_'
'important_'
'hlutaðeigandi_'
'gi'
'ever_'
'environmental_'
'efnið_'
'economic_'
'dýr_'
'credit_'
'covered_'
'controlled_'
'complete_'
'bo'
'ans_'
'als_'
'TI'
'Ra'
'My_'
'IV_'
'Hvernig_'
'Eftir_'
'vatni_'
'ug'
'tíðni_'
'times_'
'testing_'
'term_'
'table_'
'seed_'
'pursuant_'
'power_'
'operating_'
'notaðar_'
'niður_'
'ning_'
'ma'
'líf'
'little_'
'let_'
'lands'
'klínískum_'
'ke_'
'io'
'investment_'
'insurance_'
'heldur_'
'fyrirtækja_'
'found_'
'do'
'didn_'
'ci'
'check_'
'capacity_'
'bar'
']'
'VIII_'
'80_'
'óf'
'yl_'
'vín'
'vernd_'
'v'
'talin_'
'stu'
'sodium_'
'sinn_'
'si'
'ráð_'
'rinn_'
'nda_'
'min_'
'manna_'
'lo'
'legislation_'
'ki_'
'instruments_'
'gögnum_'
'failure_'
'compared_'
'cannot_'
'búnaði_'
'afurðir_'
'Why_'
'Se'
'RA'
'Other_'
'Get_'
': '
'tra'
'thereof_'
'tengjast_'
'sam'
'rinnar_'
'require_'
'ran'
'question_'
'opinion_'
'nd_'
'milk_'
'meðgöngu_'
'loss_'
'leið_'
'ja'
'inn'
'ie_'
'heiti_'
'five_'
'except_'
'devices_'
'components_'
'cell_'
'bro'
'bodies_'
'bera_'
'beita_'
'aður_'
'auka'
'annaðhvort_'
'administrative_'
'One_'
'Man'
'Let_'
'Ha'
'Chapter_'
'Car'
'87_'
'þriðju_'
'við'
'tilgreind_'
'tilgreina_'
'tes_'
'syringe_'
'special_'
'sl'
'really_'
'prófanir_'
'para'
'lög_'
'lower_'
'lokið_'
'individual_'
'hús'
'help_'
'effective_'
'described_'
'category_'
'away_'
'areas_'
'aid_'
'PA'
'Lord_'
'LA'
'Hey_'
'),_'
'þín_'
'ættu_'
'view_'
'undertaking_'
'una_'
'shown_'
'serious_'
'sed_'
'rekstrar'
'pregnancy_'
'payment_'
'lyfleysu_'
'lu'
'liver_'
'lea'
'insulin_'
'indicated_'
'hver_'
'hand'
'force_'
'finna_'
'des'
'co'
'chemical_'
'better_'
'best_'
'ali'
'Upplýsingar_'
'Treaty_'
'RE'
'Okay_'
'92_'
'26_'
' "_'
'ós'
'ð'
'yfirvald_'
'viðskipta'
'vegar_'
'unni_'
'svona_'
'sta_'
'skuli_'
'skr'
'reporting_'
'raf'
'prevent_'
'pregnant_'
'ory_'
'okkar_'
'né_'
'nu'
'nauðsynlegar_'
'meðal'
'ju'
'ide_'
'há'
'hel'
'gæða'
'evidence_'
'cover_'
'an'
'always_'
'Hi'
'EC'
'5'
'19_'
')'
'æði_'
'temperature_'
'talk_'
'submitted_'
'sp'
'slu'
'ra'
'performed_'
'paragraphs_'
'nýrnastarfsemi_'
'normal_'
'máli_'
'merki_'
'handa_'
'ght_'
'framan_'
'fjöl'
'fimm_'
'essential_'
'erum_'
'el_'
'eitthvað_'
'desember_'
'care_'
'bætt_'
'breast_'
'br'
'U_'
'Ri'
'Mr_'
'Ke'
'IN'
'December_'
'DI'
'48_'
'2008_'
'2005_'
'16'
'ók'
'ure_'
'stofnun_'
'os'
'operation_'
'mál_'
'mar'
'löggjöf_'
'kyn'
'indicate_'
'hverjum_'
'groups_'
'gg'
'gefin_'
'fyrirvara_'
'dis'
'dar_'
'contain_'
'code_'
'cal_'
'blóði_'
'be'
'aðferðum_'
'again_'
'Ar'
'öllu_'
'ál'
'vo'
'viðmiðunar'
'ven'
'tro'
'sér'
'ss'
'small_'
'short_'
'senda_'
'provision_'
'patient_'
'parts_'
'oil_'
'night_'
'might_'
'markaðs'
'inspection_'
'ik'
'hard_'
'gra'
'gerðir_'
'feed_'
'einstaklingum_'
'einstaklinga_'
'dó'
'ct_'
'class_'
'aðgerðir_'
'assets_'
'arf'
'applicant_'
'alltaf_'
'allra_'
'al'
'W'
'RI'
'Ja'
'Fyrir_'
'Fi'
'Fe'
'Articles_'
'500_'
'4'
'32_'
'22_'
'14'
'12'
'ýl'
'úr'
'ó_'
'yfirráðasvæði_'
'uni'
'tveimur_'
'training_'
'tel'
'tan'
'talið_'
'skipta_'
'show_'
'sb'
'samþykki_'
'samninga_'
'ras'
'prop'
'ola'
'money_'
'lag'
'komast_'
'keep_'
'jarð'
'inform_'
'identified_'
'ical_'
'head_'
'granted_'
'gerir_'
'gegnum_'
'gar'
'gagna_'
'fla'
'fela_'
'ekkert_'
'directly_'
'clear_'
'call_'
'bre'
'arrangements_'
'around_'
'annarri_'
'afl'
'Hjá_'
'En'
'Eftirfarandi_'
'Am'
'After_'
'89_'
',(_'
'þéttni_'
'þróun_'
'öryggis'
'ól'
'ín'
'Þau_'
'Æ'
'viku_'
'van'
'uðu_'
'sub'
'seen_'
'samband_'
'rt_'
'rights_'
'post_'
'origin_'
'ob'
'net_'
'mæla_'
'look_'
'liður_'
'leika_'
'label_'
'ip'
'ig'
'húð'
'frequency_'
'flug'
'entry_'
'dýra'
'description_'
'conducted_'
'cells_'
'bility_'
'beint_'
'aðildarríkis_'
'Ver'
'Therefore_'
'MA'
'Look_'
'Just_'
'Du'
'85_'
'8'
'66_'
'1999_'
'10'
'.'
'óm'
'ætla_'
'Áður_'
'vaccine_'
'treat_'
'tar_'
'tablet_'
'síðan_'
'suitable_'
'sjúklingar_'
'review_'
'reports_'
'reduce_'
'range_'
'population_'
'parties_'
'oc'
'nær_'
'nin_'
'natural_'
'mót'
'markaði_'
'markað_'
'líka_'
'leave_'
'las'
'l'
'konar_'
'institution_'
'initial_'
'ina'
'ia'
'haldið_'
'ha'
'gjald'
'gildandi_'
'fyrst_'
'frumu'
'fni_'
'du'
'dan'
'börn_'
'bein'
'ani'
'andinn_'
'ance_'
'ana_'
'Z'
'Til'
'OF_'
'Gl'
'Ein'
'CAS_'
'é'
'áhrifum_'
'works_'
'women_'
'vörum_'
'tilkynnt_'
'teljast_'
'submit_'
'skammti_'
'since_'
'sh_'
'rnir_'
'reduced_'
'prejudice_'
'pp'
'operations_'
'okay_'
'núna_'
'nis'
'ngar'
'minna_'
'measurement_'
'maintenance_'
'ld'
'jafn'
'issued_'
'irnar_'
'internal_'
'innri_'
'hring'
'færa_'
'ful_'
'fo'
'fjöldi_'
'example_'
'engine_'
'ely_'
'ein_'
'ein'
'designed_'
'design_'
'cancer_'
'breytingu_'
'blóð'
'ari_'
'ah'
'agreement_'
'ag'
'adopt_'
'Upp'
'Teva_'
'TE'
'Part_'
'Notkun_'
'Mo'
'Fr'
'EL'
'At_'
'AUC_'
'97_'
'36_'
'2010_'
'-'
' [_'
'þjónusta_'
'volume_'
'verk'
'told_'
'ter_'
'tengist_'
'sú_'
'syn'
'sum_'
'subparagraph_'
'su'
'skammta'
'sent_'
'reaction_'
'nauðsyn_'
'mörk_'
'mo'
'medical_'
'main_'
'lág'
'ly'
'longer_'
'lifrarstarfsemi_'
'interest_'
'ingar'
'hylki_'
'ger'
'gagna'
'fullorðnum_'
'follow_'
'fle'
'feel_'
'ek'
'einum_'
'efna'
'der_'
'da'
'course_'
'bú'
'avoid_'
'anti'
'allir_'
'VII_'
'Sm'
'Fre'
'De'
'Co'
'CI_'
';(_'
'1'
'/ _'
'ó'
'íð_'
'áhættu'
'Þr'
'vitro_'
'uses_'
'together_'
'tak'
'sáttmálans_'
'status_'
'signs_'
'safe_'
'relation_'
'rating_'
'phase_'
'out'
'ori'
'organisation_'
'onal_'
'official_'
'númer_'
'notified_'
'notification_'
'myndun_'
'minni_'
'mi'
'me'
'man'
'lyfsins_'
'lyfjum_'
'later_'
'laga'
'la'
'kill_'
'implementing_'
'hjarta'
'hin'
'heilbrigðis'
'he'
'hag'
'gla'
'gefur_'
'fólk_'
'follows_'
'flu'
'fire_'
'feeding_'
'family_'
'exceed_'
'environment_'
'direct_'
'din'
'component_'
'col'
'ce'
'bio'
'bel'
'beitingu_'
'ba'
'ary_'
'ara_'
'anir_'
'U'
'Ta'
'TA'
'Sambandsins_'
'Jo'
'93_'
'37_'
'2009_'
'%) _'
' ('
'þurfa_'
'ór'
'Þá_'
'y'
'white_'
'undertakings_'
'una'
'tíma'
'sínum_'
'smá'
'sil'
'sex_'
'sample_'
'sagði_'
'rö'
'ritonavir_'
'rh'
'rf'
'reduction_'
'ps_'
'proposed_'
'pro'
'primary_'
'port'
'obligations_'
'neyðar'
'mæli'
'mynd_'
'm2_'
'ljósi_'
'leiðir_'
'ium_'
'international_'
'indi'
'ii_'
'hætt_'
'hepatic_'
'gur_'
'gu_'
'gen_'
'framework_'
'es'
'ec'
'doing_'
'contracts_'
'chi'
'called_'
'aðstoð_'
'at'
'alvarlega_'
'Við'
'VE'
'Use_'
'Na'
'J'
'Is_'
'Ind'
'IFRS_'
'Go'
'Ac'
'=_'
'20'
'17'
'. (_'
'),  _'
'" _'
'ób'
'Út'
'wine_'
'ver_'
'veiru'
'vara_'
'val'
'types_'
'tví'
'thought_'
'svörun_'
'styrk_'
'state_'
'sst'
'soon_'
'skilyrðum_'
'size_'
'rt'
'ro'
'risks_'
'recognised_'
'placed_'
'periods_'
'pe'
'ona'
'occur_'
'network_'
'met_'
'ments_'
'limited_'
'laga_'
'kröfurnar_'
'inter'
'impact_'
'identification_'
'hækkun_'
'ganga_'
'för_'
'fót_'
'factor_'
'extent_'
'ep'
'eina_'
'eftir'
'determine_'
'des_'
'completed_'
'búnaðar_'
'bíl'
'bætist_'
'ber'
'aðili_'
'aðilar_'
'annual_'
'address_'
'Yes_'
'Viltu_'
'Then_'
'Su'
'OR'
'Not'
'Ma'
'Inter'
'Information_'
'Ho'
'Ertu_'
'Do'
'CO'
'99_'
'67_'
'400_'
'2000_'
'02_'
'01_'
''
'æða'
'Ö'
'yfirvöldum_'
'whose_'
'war'
'wa'
'var'
'uppfylli_'
'upp'
'ue_'
'tækni'
'things_'
'sína_'
'supply_'
'stuðla_'
'stjórn_'
'slík_'
'sjón'
'situation_'
'sho'
'separate_'
'reyk'
'reglum_'
'registration_'
'principles_'
'pre'
'please_'
'old_'
'mánuði_'
'meðferðar'
'members_'
'megi_'
'mb'
'mark_'
'making_'
'mL_'
'lög'
'loft'
'leyti_'
'leik'
'ks_'
'kröfum_'
'kind_'
'k'
'if'
'id'
'hæfni_'
'holder_'
'hefði_'
'glass_'
'gi_'
'geyma_'
'gas'
'frum'
'flú'
'fe'
'exchange_'
'eng'
'endur'
'duration_'
'di'
'de'
'damage_'
'child_'
'aðu_'
'art'
'allow_'
'THE_'
'Parliament_'
'Li'
'As'
'AN'
'"'
'ís'
'ying_'
'workers_'
'wi'
'week_'
'w'
'vöru'
'ví'
'vinnslu_'
'sto'
'stig_'
'ráð'
'regulatory_'
'regarding_'
'rb'
'problems_'
'pri'
'orm'
'nn'
'needle_'
'nature_'
'n'
'mánaða_'
'month_'
'mm'
'mið'
'mine_'
'mi_'
'matter_'
'læknirinn_'
'ling_'
'li'
'led_'
'krefur_'
'kann_'
'ian_'
'hvern_'
'house_'
'fyrri_'
'fræ'
'framleiðanda_'
'framkvæma_'
'for'
'flutnings'
'film_'
'filled_'
'fat'
'evaluation_'
'etr'
'emission_'
'eining_'
'einhver_'
'ed'
'ded_'
'dar'
'bor'
'ble'
'beta_'
'aðal'
'ari'
'are'
'adjustment_'
'adequate_'
'actions_'
'act_'
'Wo'
'Sjúklingar_'
'ST'
'OG_'
'IX_'
'Guð_'
'For'
'Act'
'96_'
'77_'
'52_'
'29_'
'27_'
'197'
'..'
'''
'(_'
'þennan_'
'úl'
'óþ'
'í'
'virus_'
'ves_'
'upon_'
'unt'
'tilgangi_'
'sýru'
'sínu_'
'sufficient_'
'skömmtum_'
'scope_'
'samples_'
'ro_'
'reglulega_'
'ram'
'produced_'
'pha'
'paediatric_'
'pa'
'om'
'mer'
'lögbær_'
'late_'
'kol'
'klór'
'júní_'
'janúar_'
'ið'
'hámarks'
'ho'
'heil'
'greater_'
'gli'
'fékk_'
'færð_'
'fjárhæð_'
'fixed_'
'find_'
'fellur_'
'fari_'
'ey'
'excluding_'
'examination_'
'establish_'
'eri'
'el'
'dur_'
'calculated_'
'beitt_'
'að'
'ann'
'allergic_'
'ak'
'agents_'
'ab'
'Vi'
'Ve'
'Var'
'Si'
'SE'
'SC'
'Per'
'NA'
'June_'
'Inn'
'IC'
'ER'
'Aðildarríki_'
'Allt_'
'9'
'19'
'00'
', '
' / _'
'zi'
'vinna_'
'tum_'
'tre'
'sólarhring_'
'surface_'
'stjórnsýslu'
'staðli_'
'skráningar'
'ship_'
'she'
'scientific_'
'sation_'
'samanborið_'
'rú'
'ró'
'rl'
'resulting_'
'reasons_'
'rang'
'powder_'
'or'
'náð_'
'ms_'
'mid'
'meðhöndlun_'
'measure_'
'markaðssetningu_'
'lögum_'
'lungna'
'ljós'
'lin'
'limits_'
'likely_'
'leita_'
'legar_'
'kt'
'ko'
'iti'
'hugsanlega_'
'ht'
'hita'
'gul'
'fu'
'framleiðslu'
'establishment_'
'ess_'
'ence_'
'eftirliti_'
'cycle_'
'continue_'
'carrying_'
'car_'
'bólga_'
'big_'
'aðildarríkja_'
'asset_'
'Te'
'So'
'SP'
'Po'
'La'
'January_'
'Ge'
'FI'
'Ca'
'Af'
'83_'
'73_'
'65_'
'45_'
'15'
'þjónustu'
'ölu'
'íu_'
'ár'
'ze_'
'yk'
'xa'
'vikur_'
'veg'
'vatn_'
'va_'
'urs'
'urnar_'
'ua'
'tir_'
'tilvik_'
'ties_'
'there'
'the'
'terms_'
'tekin_'
'tafarlaust_'
'sýni_'
'support_'
'supervision_'
'stór'
'starfa_'
'sorry_'
'skaltu_'
'sir_'
'sh'
'road_'
're'
'processing_'
'pal'
'over'
'orðið_'
'ok'
'ningu_'
'nauðsynleg_'
'mí'
'málm'
'munn'
'met'
'magni_'
'löndum_'
'lt'
'los'
'lis'
'leysi_'
'laus_'
'key_'
'kerfið_'
'ila'
'hópnum_'
'hérna_'
'hærri_'
'hy'
'hjarta_'
'hita_'
'hen'
'half_'
'fór_'
'enti'
'endum_'
'ement_'
'eld'
'document_'
'dine_'
'cur'
'carry_'
'bra'
'bil_'
'atriði_'
'ato'
'arh'
'amp'
'acting_'
'ISO_'
'He'
'Engar_'
'ES'
'CA'
'Bu'
'Are_'
'% (_'
' < _'
'ónæmis'
'óh'
'íf'
'árs'
'yfirvalda_'
'won_'
'vill_'
'ut'
'us'
'upplýsinga'
'uk'
'trú'
'transmission_'
'target_'
'st'
'spa'
'skýrslu_'
'skoðunar'
'self_'
'sak'
'ráðstöfunum_'
'ráðstafana_'
'rs'
'rof'
'rekstraraðila_'
'pólý'
'pu'
'protein_'
'preparation_'
'po'
'pen_'
'ological_'
'ol'
'occurred_'
'nú'
'nk'
'nat'
'meðhöndla_'
'mats'
'mark'
'lum_'
'laws_'
'lar_'
'lagt_'
'kö'
'ita'
'instructions_'
'i'
'hálf'
'hverja_'
'hug'
'hand_'
'ground_'
'gre'
'gest'
'fucking_'
'fs'
'fre'
'formi_'
'flow_'
'ferli_'
'face_'
'fa'
'expressed_'
'exp'
'emp'
'eco'
'ea'
'distribution_'
'cu'
'condition_'
'competition_'
'capsules_'
'ban'
'asi'
'annast_'
'ang'
'ai'
'Safety_'
'SA'
'Pre'
'Ga'
'Fo'
'Bi'
'Any_'
'Ad'
'Ab'
'7'
'55_'
'47_'
'39'
'35_'
'21'
'2011_'
'13'
'.'
'‘_'
'þvag'
'þeirrar_'
'ún'
'öðu'
'ól_'
'íni_'
'íl'
'át'
'vottorð_'
'viðskipti_'
'vis'
'vinnu'
'vei'
'tilgreindar_'
'sín_'
'stjórn'
'ssion_'
'space_'
'sha'
'semi_'
'sel'
'samnings'
'ri'
'ref'
'rað'
'pra'
'poly'
'ow_'
'outside_'
'organic_'
'op'
'ome'
'objectives_'
'ningar'
'ngi'
'na'
'metýl'
'lögð_'
'lækkun_'
'læg'
'lok_'
'lla'
'left_'
'laboratory_'
'it'
'iso'
'ins'
'inndælingu_'
'inc'
'ide'
'hyper'
'hlutfall_'
'hear_'
'góð'
'greiða_'
'greiningar'
'gar_'
'fó'
'fæ'
'fyrirliggjandi_'
'future_'
'fresti_'
'fore'
'final_'
'ey_'
'eth'
'eftirlits'
'dy'
'done_'
'current_'
'coming_'
'com'
'coated_'
'cli'
'clearance_'
'cent'
'cc'
'bak'
'au'
'ar'
'approximately_'
'ann_'
'anda_'
'alternative_'
'alone_'
'aemia_'
'Tri'
'Such_'
'Sta'
'Sl'
'Re'
'Please_'
'NO'
'Kannski_'
'Evrópusambandsins_'
'Ef'
'CYP3A4_'
'Annexes_'
'An'
'18'
'ón'
'ðu'
'ær'
'ze'
'viðaukanum_'
'valda_'
'v_'
'users_'
'undan_'
'ums'
'ul'
'trans'
'ton_'
'tilgreint_'
'tengd_'
'ta'
'strax_'
'slíkar_'
'sale_'
'rif'
'requirement_'
'rannsóknar'
'provides_'
'post'
'particularly_'
'oxi'
'orku'
'oni'
'obligation_'
'nt'
'nan'
'mil'
'mati_'
'markmið_'
'lögbært_'
'ls'
'lead_'
'lau'
'kú'
'kost'
'kleift_'
'items_'
'ite'
'hvorki_'
'haf'
'greiðslu'
'go'
'gn'
'gene'
'fé_'
'fyrr_'
'four_'
'fljótt_'
'fir'
'finnst_'
'fi'
'eta'
'ertu_'
'ents_'
'ena'
'elements_'
'einhverju_'
'e'
'drug_'
'decrease_'
'cou'
'corresponding_'
'consumer_'
'ch'
'cation_'
'categories_'
'by'
'bli'
'bi'
'aðgerða_'
'ax'
'average_'
'auð'
'annan_'
'almennt_'
'agreements_'
'TO_'
'Res'
'Q'
'NS'
'NE'
'LD'
'Kl'
'John_'
'Hvar_'
'Hel'
'El'
'Einnig_'
'Cu'
'Ci'
'Be'
'86_'
'76_'
'56_'
'39_'
'þyngd_'
'þitt_'
'ökutækja_'
'ás'
'ári_'
'why_'
'went_'
'ving_'
'verification_'
'veitir_'
'vegum_'
'uri'
'umf'
'umb'
'uf'
'tímabil_'
'tri'
'transfer_'
'thi'
'sölu_'
'sö'
'stungulyf_'
'stre'
'statistics_'
'stage_'
'social_'
'sli'
'skilgreind_'
'sker'
'sen'
'sal'
'rúm'
'röð_'
'rest'
'real_'
'rea'
'rannsókninni_'
'ramma_'
'rafræn'
'programmes_'
'pr'
'opa'
'notar_'
'nga_'
'nd'
'mö'
'moderate_'
'meðal_'
'mel'
'megin'
'lor'
'liquid_'
'leiðbeiningar_'
'lands_'
'land'
'kv'
'kur_'
'knowledge_'
'já_'
'ist'
'issue_'
'ility_'
'holding_'
'heimild_'
'heimil'
'gs_'
'grein_'
'gott_'
'gni'
'gh_'
'gam'
'gall'
'fram'
'fra'
'flight_'
'fjár'
'fast_'
'eð_'
'epi'
'ele'
'einni_'
'efri_'
'dro'
'company_'
'commercial_'
'close_'
'borð_'
'bláæð_'
'beiðni_'
'aði_'
'arg'
'ale'
'ain_'
'VI'
'LE'
'Ki'
'Is'
'Er'
'ES_'
'Did_'
'Ba'
'88_'
'00_'
' > _'
'útsetningu_'
'ím'
'æt'
'ákveða_'
'z_'
'wanna_'
'vél'
'vik'
'veterinary_'
'vefja'
'uv'
'urðu_'
'tvö_'
'tru'
'tilteknar_'
'systemic_'
'stærð_'
'sti_'
'skammtinn_'
'sing_'
'rottum_'
'rk'
'reynslu_'
'release_'
'rec'
'read_'
'rats_'
'professional_'
'presence_'
'og'
'oft_'
'nýtt_'
'nó'
'next_'
'mynda'
'mouth_'
'mor'
'mjólk_'
'meat_'
'logical_'
'local_'
'lf'
'lation_'
'kidney_'
'involved_'
'institutions_'
'innrennslis'
'inhibitors_'
'independent_'
'hættu'
'hár'
'hve_'
'heilbrigði_'
'h'
'grundvallar'
'gl'
'geym'
'getting_'
'gengið_'
'framleiðandi_'
'flytja_'
'flutninga_'
'flokkun_'
'finn'
'farm'
'fan'
'falli_'
'entities_'
'eni'
'enginn_'
'dry_'
'documents_'
'detailed_'
'ction_'
'collection_'
'ced_'
'cash_'
'brot'
'blanda_'
'bat'
'basic_'
'barn_'
'aukefni_'
'auk_'
'augn'
'ara'
'ant'
'allowed_'
'airport_'
'acts_'
'Tru'
'St'
'PR'
'Or'
'On_'
'Ly'
'Lu'
'Le'
'Hæ'
'Herceptin_'
'Gi'
'Farðu_'
'Ed'
'EN_'
'CH'
'CE_'
'Bl'
'Appendix_'
'81_'
'79_'
'68_'
'49_'
'3'
'."  _'
') '
'ýn'
'íð'
'ám'
'Þessar_'
'Ákvæði_'
'yn'
'yet_'
'wel'
'viðhalda_'
'vettvangi_'
'vers'
'varð_'
'uð'
'ung'
'ub'
'u'
'tvisvar_'
'tor_'
'tor'
'tit'
'ti'
'teknu_'
'sugar_'
'stöðug'
'stra'
'stjórnun_'
'staðfesta_'
'speed_'
'source_'
'slíkt_'
'sla'
'skugga_'
'sku'
'several_'
'set'
'samkeppnis'
'sagt_'
'rð_'
'rm'
'rit'
'ries_'
'rep'
'ration_'
'plants_'
'ph'
'ped_'
'ný'
'nafn_'
'my'
'mun'
'mið_'
'meti'
'mann'
'major_'
'ló'
'lát'
'lamps_'
'kó'
'kle'
'kerfisins_'
'irin'
'invest'
'interests_'
'ing'
'infections_'
'hættuleg'
'hvít'
'heim_'
'har'
'gun'
'gjör'
'gja_'
'geymslu_'
'getu_'
'gen'
'geisla'
'fá'
'fully_'
'frv_'
'flokka_'
'exc'
'eti'
'etc_'
'enda'
'employees_'
'egg'
'efnis_'
'eas'
'dom'
'details_'
'cyto'
'ct'
'cost_'
'cop'
'classification_'
'chronic_'
'characteristics_'
'certificates_'
'capital_'
'bit'
'aðildarríkjum_'
'and'
'With_'
'Wa'
'UCITS_'
'Take_'
'Sec'
'Nú_'
'LI'
'Kal'
'International_'
'IS'
'Hvert_'
'HE'
'Eins_'
'Can_'
'AS'
'AND_'
':_'
'6'
'öf'
'æ'
'Þið_'
'Ú'
'Ð_'
'zo'
'ytri_'
'ys_'
'yourself_'
'yc'
'viðbrögð_'
'verkefni_'
'vel'
'veist_'
'varnar'
'ura'
'une'
'undirgrein_'
'tákn'
'tveggja_'
'trials_'
'tig'
'therapeutic_'
'tar'
'sí'
'stöðu'
'stofnanir_'
'stofn'
'star'
'spr'
'slíkum_'
'skýr'
'skilgreint_'
'sjá'
'sitt_'
'sector_'
'sections_'
'run_'
'rest_'
'reiknings'
'registered_'
'record_'
'rap'
'que'
'próf'
'pon'
'pin'
'pan'
'ott'
'otherwise_'
'oli'
'objective_'
'nsi'
'nota'
'niðurstöðu_'
'ngi_'
'meta'
'mat'
'many_'
'lengd_'
'kynn'
'kunna_'
'ku'
'krefjast_'
'kk'
'júlí_'
'járn'
'jandi_'
'ised_'
'innihald_'
'improve_'
'im'
'ie'
'ido'
'ici'
'hversu_'
'hn'
'hljóð'
'hins_'
'harm'
'gun_'
'gs'
'girl_'
'ga'
'fö'
'frá'
'fruit_'
'front_'
'forms_'
'followed_'
'flo'
'fjárfestingar'
'fell'
'far'
'fa_'
'estimated_'
'employed_'
'em'
'eldri_'
'dip'
'cra'
'contained_'
'consult'
'cla'
'ck'
'chloride_'
'cere'
'can'
'bó'
'bol'
'ben'
'bas'
'atvinnu'
'ate'
'ast'
'approach_'
'ana'
'aka_'
'afurðum_'
'adults_'
'PRO'
'OP'
'ON'
'Ný'
'Novo'
'Mar'
'Láttu_'
'July_'
'JA'
'IL'
'GE'
'Fram'
'Fa'
'FA'
'EF'
'Data_'
'Col'
'Cmax_'
'CD'
'By_'
'Ben'
'BA'
'82_'
'600_'
'414_'
'36'
'22'
'0'
'*'
' '_'
'‘_'
'þjóð'
'ök_'
'átti_'
'ál_'
'vísinda'
'vor'
'viðbæti_'
'vit'
'vildi_'
'verulega_'
'vef'
'ustu_'
'upper_'
'und'
'un'
'tö'
'tið_'
'tin'
'th'
'tas'
'sýkingu_'
'sögu_'
'sá'
'surveillance_'
'supplied_'
'skoðun_'
'sin'
'significantly_'
'sf'
'setting_'
'send_'
'se'
'sampling_'
'ry'
'respectively_'
'rek'
'póst'
'plastic_'
'pit'
'pect'
'paid_'
'oe'
'o'
'ný_'
'nom'
'nemur_'
'needed_'
'móti_'
'málsmeðferð_'
'máls'
'mp'
'mono'
'ml'
'matvæli_'
'manner_'
'lyf'
'lt_'
'lot_'
'lifrar'
'let'
'len'
'legur_'
'langt_'
'kyns_'
'kum_'
'ker'
'jóð'
'jár'
'je'
'instrument_'
'ini'
'ile'
'hreins'
'however_'
'hol'
'haemo'
'gæði_'
'gæta_'
'gt_'
'greiningar_'
'geng'
'fóður'
'fitu'
'fi_'
'factors_'
'ew'
'eo'
'enn'
'einingu_'
'drop'
'driving_'
'dra'
'dia'
'demonstrated_'
'delay_'
'controls_'
'contents_'
'clinically_'
'charge_'
'ces_'
'cal'
'búið_'
'bs_'
'bring_'
'bleeding_'
'bl'
'bj'
'auki_'
'atr'
'ati'
'ath'
'ars'
'anti_'
'annar_'
'anleg'
'We'
'SS'
'SI'
'RNA_'
'Pu'
'PI'
'Ni'
'Me'
'Læknirinn_'
'Lit'
'Kr'
'IT'
'IF'
'Gu'
'Ger'
'Einungis_'
'Bre'
'Allir_'
'AT'
'46_'
'. '
'“: _'
'þrí'
'útbrot_'
'ög'
'ón_'
'íum'
'áætluninni_'
'ástand_'
'zed_'
'za'
'yr'
'yfirleitt_'
'world_'
'wn_'
'vöðva'
'vír_'
'vist'
'vinnu_'
'verka'
'vara'
'utan'
'undan'
'umsókn_'
'ule'
'tíða'
'twice_'
'tur'
'trygginga'
'tir'
'tested_'
'tengi'
'tap'
'tal_'
'sý'
'séð_'
'sum'
'starfsmenn_'
'ssk'
'sr'
'slíka_'
'sleg'
'sla_'
'sjálf'
'sion_'
'samf'
'sameiginlega_'
's'
'ríkis'
'ríki_'
'réttindi_'
'room_'
'resistance_'
'reli'
'rel'
'rash_'
'r'
'qui'
'qua'
'processes_'
'previous_'
'pi'
'path'
'oxa'
'original_'
'organisations_'
'one'
'olíu'
'ningar_'
'málsgrein_'
'mol'
'ming_'
'meðhöndlaðir_'
'merki'
'mann_'
'lík'
'lágmarks'
'looks_'
'lok'
'load_'
'lit'
'leyfa_'
'legum_'
'krabbameins'
'konum_'
'ket'
'kept_'
'ked_'
'joint_'
'jo'
'iron_'
'innrennsli_'
'ining'
'in'
'immuno'
'háð_'
'hl'
'herra_'
'hefja_'
'gum_'
'glu'
'ge'
'gan'
'functioning_'
'fjármála'
'few_'
'feeling_'
'eð'
'eye_'
'ert'
'enough_'
'en'
'einka'
'dy_'
'dul'
'dreifingu_'
'documentation_'
'dig'
'developed_'
'den'
'bri'
'bone_'
'bea'
'baseline_'
'balance_'
'afs'
'ae'
'ad'
'achieved_'
'Ze'
'Tell_'
'Sub'
'Stað'
'Samkvæmt_'
'RO'
'Pe'
'Op'
'MI'
'Ka'
'In'
'Finn'
'Fin'
'Exc'
'Endur'
'Em'
'Drottinn_'
'Comp'
'Common_'
'At'
'All'
'AE'
';'
'67'
'198'
'.“_'
'):  _'
' ± _'
'þétt'
'þykir_'
'ýs'
'ú'
'öðlast_'
'örveru'
'óp'
'ðar'
'ísk'
'ábyrg'
'yt'
'yrk'
'yfir'
'viss_'
'vinnslu'
'vi'
'veik'
'varúðar_'
'val_'
'upplýsingarnar_'
'uppfyllir_'
'up'
'töku_'
'ture_'
'tn'
'tilteknum_'
'taldar_'
'tal'
'sus'
'sty'
'staðla_'
'stað'
'specifications_'
'solvent_'
'snertingu_'
'sne'
'sjóða_'
'shit_'
'ships_'
'satisfy_'
'sann'
'sambærileg'
'rúmmál_'
'rá'
'ros'
'ring'
'ric'
'ren'
'regulations_'
'ral'
'quin'
'prófunum_'
'practices_'
'pen'
'ot_'
'osis_'
'ofnæmi_'
'odi'
'nýrna'
'næst_'
'ny_'
'nta'
'notaður_'
'noise_'
'niðurstöðum_'
'ner_'
'mín'
'mikla_'
'machines_'
'lýsingu_'
'lífræn'
'lí'
'lyfinu_'
'lle'
'liðum_'
'liti'
'lar'
'lagðar_'
'lab'
'kra'
'kom'
'kis'
'ke'
'karl'
'ka'
'iv'
'inserted_'
'inna_'
'hæ'
'hrein'
'hour_'
'hinum_'
'heyra_'
'hettuglas_'
'hefst_'
'han'
'gæ'
'great_'
'gat'
'gagnvart_'
'fylgjast_'
'fylgir_'
'fullu_'
'fuel_'
'framkvæmdar_'
'fr'
'fjárhags'
'fin'
'fest'
'ferða'
'ferð_'
'fair_'
'exposed_'
'end'
'emergency_'
'electro'
'einstaklingur_'
'ei'
'dín'
'drive_'
'drepa_'
'dreif'
'draw_'
'doesn_'
'disorder_'
'die_'
'decisions_'
'coa'
'circumstances_'
'certified_'
'búin_'
'bólgu_'
'brjóst'
'breyti'
'become_'
'bandalaginu_'
'ase'
'anything_'
'anda'
'additive_'
'aci'
'Virk'
'Tra'
'Svo_'
'SU'
'SO'
'Pl'
'Pi'
'Pen'
'PT'
'PL'
'Nota_'
'Mat'
'Gen'
'Form'
'Fjöldi_'
'FS'
'Engin_'
'Directives_'
'Con'
'CR'
'CO2_'
':(_'
'þótt_'
'þekkt_'
'ýt'
'útblásturs'
'ökutækis_'
'óla'
'óa'
'ðs'
'ír'
'áh'
'ág'
'woman_'
'ways_'
'wanted_'
'vomiting_'
'viðmiðanir_'
'virkt_'
'vessels_'
'verndar'
'verkir_'
'vega'
'ular_'
'tímabili_'
'tvo_'
'tj'
'tilvísunar'
'stay_'
'sor'
'skipu'
'sað'
'samsvarandi_'
'ráðið_'
'rv'
'rot'
'representative_'
'rein'
'rauð'
'rates_'
'rat'
'published_'
'pt'
'ps'
'previously_'
'policy_'
'ple'
'permit_'
'packaging_'
'ox'
'orku_'
'ond'
'obtain_'
'nýju_'
'nti'
'notice_'
'nor_'
'ngur_'
'nes'
'monitor_'
'mit'
'miklu_'
'merg'
'maintain_'
'mac'
'lýð'
'lýsing_'
'látið_'
'lip'
'ley_'
'lat'
'large_'
'ku_'
'ks'
'kr'
'kostnaðar_'
'komst_'
'kla'
'ju_'
'jar_'
'itself_'
'ind'
'ida'
'ice_'
'höfuð'
'hópi_'
'hélt_'
'hæð_'
'hal'
'growth_'
'gran'
'gleym'
'fur_'
'fljótandi_'
'father_'
'f'
'external_'
'eme'
'eig'
'difference_'
'der'
'dauð'
'cooperation_'
'contracting_'
'consideration_'
'concomitant_'
'compounds_'
'clearly_'
'checks_'
'card_'
'cap'
'calculation_'
'bær'
'bru'
'blóðs'
'bla'
'bestu_'
'band'
'aðildarríkisins_'
'arm_'
'ap'
'anum_'
'ami'
'alvarleg'
'alter'
'allan_'
'all'
'ain'
'adolescents_'
'acute_'
'[_'
'Un'
'UN'
'UM_'
'TA_'
'Sum'
'Stjórn'
'She'
'Sha'
'SK'
'Only_'
'Net'
'Mylan_'
'My'
'Mon'
'Lýsing_'
'Flo'
'CP'
'Ass'
'94_'
'71_'
'40'
'34_'
'31'
'01'
',‘_'
'). _'
'“_'
'“, _'
'þína_'
'þurr'
'þj'
'þarft_'
'þ'
'örugg'
'ögu'
'öflug'
'ðr'
'ðist_'
'ða'
'ást'
'za_'
'yst'
'yngri_'
'yfirvaldið_'
'x'
'wines_'
'viðurkenningu_'
'vision_'
'uðum_'
'undanskildum_'
'und_'
'umhverfis'
'tími_'
'té_'
'trí'
'trying_'
'tis_'
'tilviki_'
'tilf'
'síðasta_'
'sínar_'
'sur'
'stöðva_'
'styrkur_'
'stofu'
'statements_'
'starting_'
'started_'
'someone_'
'skýrslur_'
'skort'
'skor'
'sjúkdóma_'
'sjaldgæf'
'samstarfs'
'salt'
'sag'
'ræn'
'ráðstöfun'
'roll'
'ribavirin_'
'regular_'
'recommendations_'
'raunveruleg'
'que_'
'pul'
'port_'
'ping_'
'phosphate_'
'pharmacokinetics_'
'pers'
'pay_'
'ot'
'nothing_'
'normally_'
'nice_'
'neitt_'
'needs_'
'ne'
'naf'
'mögulegt_'
'möguleg'
'mum_'
'mother_'
'mon'
'metin_'
'mengunar'
'men'
'mar_'
'maintained_'
'lín'
'lk'
'lifrarbólgu_'
'lif'
'lg'
'leysi'
'length_'
'legs_'
'landbúnaðar'
'kæli'
'kl'
'kin'
'kerfinu_'
'itu'
'inf'
'incidence_'
'ih'
'hönnun_'
'huga_'
'hu'
'hraða'
'hot_'
'hepatitis_'
'gu'
'greini'
'glæ'
'ging_'
'getum_'
'gerðarviðurkenningu_'
'form'
'forget_'
'fja'
'fertility_'
'fella_'
'fag'
'fact_'
'exercise_'
'exceeding_'
'everything_'
'eu'
'ern'
'ema'
'dælu'
'dum_'
'dregið_'
'determination_'
'derogation_'
'dep'
'count_'
'cing_'
'char'
'cer'
'came_'
'cally_'
'breytingum_'
'boy_'
'border_'
'board_'
'bjóða_'
'aðg'
'atic_'
'arnir_'
'applies_'
'amounts_'
'amb'
'agricultural_'
'ages_'
'affected_'
'adult_'
'Val'
'VA'
'United_'
'UR'
'Type_'
'Sto'
'Sea'
'PVC_'
'Mi'
'Maybe_'
'ME'
'Here_'
'HCV_'
'FR'
'FL'
'Evrópuþingsins_'
'Enginn_'
'Bú'
'Bri'
'BE'
'72_'
'þýði'
'þínum_'
'þrjú_'
'þarna_'
'útgáfu_'
'óta'
'ðil'
'íó'
'ína'
'áhrifa_'
'Þó_'
'Öll_'
'yg'
'xt'
'véla_'
'vol'
'viðbótar_'
'viðb'
'virði_'
'vill'
'verk_'
'veiru_'
'various_'
'unnið_'
'undi'
'under'
'ume'
'ual_'
'tölu'
'tæk'
'traffic_'
'today_'
'tilkynningar'
'tilkynn'
'taki_'
'sæ'
'sykursýki_'
'svipað'
'stærri_'
'styrk'
'ste'
'stated_'
'spor'
'spe'
'snið'
'skipti_'
'ske'
'sinnum_'
'serum_'
'secondary_'
'sea'
'sar'
'rými_'
'rý'
'rík'
'rí'
'rr'
'rie'
'rid'
'res'
'relative_'
'rei'
'regularly_'
'reason_'
'quantity_'
'prótein'
'protected_'
'protect_'
'presented_'
'pipe'
'personal_'
'par'
'oxí'
'organisms_'
'opening_'
'nun_'
'nte'
'nin'
'ngum_'
'ng'
'nes_'
'nefndarinnar_'
'mæli_'
'myndi_'
'multi'
'mu'
'monitored_'
'miða'
'mitt_'
'micro'
'mega_'
'meeting_'
'medium_'
'marg'
'mal'
'lær'
'lyfja'
'lic'
'leiki_'
'lam'
'lad'
'kunn'
'komist_'
'klínískar_'
'kað'
'kalíum'
'jó'
'jan'
'ino'
'innihaldsefni_'
'háttar_'
'humans_'
'hraða_'
'hor'
'heat_'
'harmonised_'
'gætu_'
'gro'
'greinar_'
'grant_'
'gp_'
'gle'
'gin_'
'gave_'
'fum_'
'fri'
'flutninga'
'fish_'
'favour'
'facilities_'
'eðli_'
'enter_'
'enta'
'ent'
'ensi'
'emb'
'einingin_'
'efnahags'
'dogs_'
'discontinued_'
'dic'
'decreased_'
'decide_'
'deal_'
'dal'
'dag'
'cul'
'consistent_'
'concluded_'
'chloro'
'certification_'
'carriers_'
'bætur_'
'burn'
'bur'
'bruna'
'bon'
'believe_'
'aukaverkunum_'
'ative_'
'assess_'
'asa'
'applications_'
'ama'
'alveg_'
'alls_'
'alcohol_'
'ala'
'afar_'
'advice_'
'act'
'absence_'
'XI'
'W_'
'Tu'
'Stu'
'Sti'
'Star'
'Skil'
'Number_'
'Land'
'LO'
'Hl'
'Go_'
'EM'
'Dr'
'DA'
'Cor'
'Category_'
'CT_'
'Before_'
'Bandalaginu_'
'Ap'
'Ag'
'AU'
'AG'
'AF'
'AC'
'43'
'38_'
'29'
'250_'
'196'
')(_'
'“._'
'þremur_'
'þjálfun_'
'þekkingu_'
'úm'
'öð'
'óst'
'ósk'
'óháð_'
'æxli_'
'árum_'
'ák'
'zer'
'ys'
'ykkar_'
'yellow_'
'wea'
'we'
'vöruflokk'
'vu'
'vot'
'viðtöku'
'vikna_'
'veit'
'urine_'
'ures_'
'ure'
'understand_'
'tölvu'
'töku'
'tól'
'ts'
'took_'
'ten_'
'telur_'
'takmarkanir_'
'sþ'
'síu'
'sérstök_'
'swelling_'
'svæðum_'
'svi'
'supplement'
'supp'
'sumum_'
'stigi_'
'step_'
'stein'
'starfsmanna_'
'stak'
'slu_'
'six_'
'ser'
'securities_'
'samst'
'samkeppni_'
'rum_'
'rob'
'restricted_'
'remain_'
'ratio_'
'pí'
'pti'
'providing_'
'principle_'
'price_'
'pn'
'plane_'
'phy'
'photo'
'pat'
'part'
'package_'
'pa_'
'overall_'
'ova'
'osi'
'organ_'
'nýjum_'
'ní'
'náð'
'ns'
'ngs_'
'nga'
'natríum'
'möguleika_'
'málið_'
'myndu'
'model_'
'mild_'
'mentioned_'
'matar'
'lögbæra_'
'lán'
'loka'
'liability_'
'leng'
'lay_'
'late'
'lan'
'lags'
'kri'
'kal'
'justified_'
'job_'
'jafnvægi_'
'jafnvel_'
'ive'
'iva'
'ish_'
'installation_'
'ili'
'idea_'
'ica'
'ic'
'hæfi_'
'hve'
'hund'
'hold_'
'hlut'
'hlaup'
'history_'
'heimilis'
'heimila_'
'hands_'
'greint_'
'gildis'
'geð'
'geri_'
'ger_'
'generally_'
'fyrirs'
'fyrir'
'fræði_'
'fl'
'fjarskipta'
'fitted_'
'fine_'
'fall_'
'ester'
'emia_'
'elt'
'else_'
'els'
'einkennum_'
'early_'
'dýralyf'
'drep'
'dox'
'dos'
'docetaxel_'
'disa'
'designated_'
'death_'
'dea'
'dagsetning'
'cru'
'cor'
'comes_'
'collected_'
'cho'
'cardiac_'
'ca'
'bí'
'byggingar'
'bráðabirgða'
'brought_'
'brjósti_'
'brea'
'blind'
'benda_'
'behalf_'
'bb'
'aðilum_'
'aukaverkana_'
'ating_'
'ata'
'arm'
'arb'
'apa'
'anc'
'alvarleg_'
'afr'
'ade'
'Win'
'Who_'
'Vo'
'UR_'
'Sv'
'Sjá_'
'Rep'
'New_'
'NU'
'NG_'
'Mis'
'May_'
'Mac'
'Lögbær'
'Leit'
'Her'
'Hea'
'GI'
'Fyrir'
'Far'
'AP'
'57_'
'42_'
'28'
'23'
'11'
'./_'
'* _'
'%)'
'þáttur_'
'þáttum_'
'þr'
'ús'
'úk'
'örðu'
'öndunar'
'ökutækið_'
'óv'
'ísó'
'íns_'
'él'
'ætt_'
'æn'
'árið_'
'álit_'
'Þrátt_'
'yfirvaldi_'
'xu'
'written_'
'withdrawal_'
'wide_'
'veð'
'vald_'
'vac'
'usual_'
'ust_'
'uppg'
'uppfyllt_'
'undanþágu_'
'umu'
'tækið_'
'turn'
'tti'
'try_'
'trial_'
'tly_'
'tissue_'
'thrombo'
'ther'
'te'
'talking_'
'sérhæfðra_'
'supervisory_'
'sun'
'subsequent_'
'stigs_'
'ster'
'standa_'
'sta'
'sma'
'skyldur_'
'skuld'
'skjá'
'skips'
'skilyrðin_'
'skammtar_'
'sick_'
'sca'
'samþykktar_'
'samtímis_'
'samræmd'
'samr'
'rým'
'róf'
'ráða_'
'rti'
'rop'
'rna'
'reyna_'
'resources_'
'research_'
'represent'
'receive_'
'rear_'
'ready_'
'pump_'
'protective_'
'progress_'
'prescribed_'
'prepared_'
'pot'
'positive_'
'plöntu'
'plast'
'pla'
'physical_'
'phi'
'percentage_'
'ose_'
'ort_'
'opinbera_'
'opinber'
'operated_'
'ofnæmisviðbrögð_'
'object'
'nýja_'
'nægileg'
'noti'
'neðan_'
'nanna_'
'mod'
'mikilvægt_'
'methyl'
'mes_'
'manufacture_'
'machinery_'
'lykil'
'lutning'
'luta'
'lug'
'looking_'
'loo'
'lom'
'lofti_'
'lengi_'
'leiða_'
'kynna_'
'kostnað_'
'km_'
'kku'
'kerfa_'
'kar'
'kan'
'kalsíum'
'jós'
'ji'
'iz'
'ivi'
'ion'
'inspections_'
'inside_'
'informed_'
'infl'
'ine'
'income_'
'imm'
'hönd_'
'höfum_'
'hæf'
'hypo'
'hvenær_'
'hra'
'hjúkrunarfræðing'
'hjól'
'hip_'
'hingað_'
'hep'
'hem'
'göngu'
'gið_'
'get'
'gefinn_'
'fóðri_'
'fyrirtækjum_'
'fyrirtækis_'
'ft'
'fræ_'
'frjósemi_'
'framkvæmdastjórnina_'
'forðast_'
'flokkur_'
'ffe'
'fer'
'female_'
'fat_'
'eðlileg'
'exhaust_'
'et'
'especially_'
'equal_'
'entr'
'enterprises_'
'ens'
'enable_'
'electrical_'
'eið'
'eiturverkunum_'
'eitur'
'eit'
'eiginleika_'
'egt_'
'ega'
'efnisins_'
'edi'
'dögum_'
'drink_'
'diseases_'
'dir_'
'det'
'dags'
'consider_'
'completely_'
'column_'
'chrom'
'cet'
'bók'
'brot_'
'boð'
'blóðsykurs'
'bili_'
'ban_'
'atvik'
'atil'
'ass_'
'angi_'
'ald_'
'afurða_'
'afm'
'additives_'
'aca'
'Vel'
'VIÐ'
'Ti'
'Thank_'
'Spe'
'Sp'
'Since_'
'SE_'
'Pres'
'Port'
'ON_'
'OL'
'Mjög_'
'Kom'
'Ju'
'Jack_'
'Ins'
'IMO_'
'Have_'
'Gro'
'Ex'
'Ent'
'Eit'
'ER_'
'Dre'
'Dan'
'DE'
'Cha'
'Ce'
'CL'
'C1'
'By'
'Bro'
'BL'
'Activ'
'Accord_'
'AS_'
'AL_'
'AD'
'? - _'
'64_'
'64'
'62_'
'54_'
'51_'
'2b_'
'2012_'
'1998_'
'05_'
')) _'
'úthreinsun_'
'ólu'
'óg'
'ík'
'ástæðum_'
'ása'
'ákvarðanir_'
'Þess_'
'Ákv'
'yfirlýsing'
'xl'
'wo'
'win'
'vöru_'
'vöktunar'
'vöktun_'
'virk_'
'vilja_'
'vet'
'ver'
'venjulega_'
'venjuleg'
'varia'
'vagn'
'usually_'
'uppruna'
'uns'
'umr'
'umab_'
'ually_'
'tók_'
'tæð'
'tæ'
'tumour_'
'transfer'
'top'
'tis'
'tiltekin_'
'teknar_'
'tek_'
'tek'
'tegundir_'
'tea'
'tasks_'
'tap_'
'sýkingar_'
'sögu'
'syndrome_'
'suspension_'
'surgery_'
'subcutaneous_'
'stýr'
'stri'
'stored_'
'staðfest_'
'starf'
'ssa'
'sound_'
'smit'
'sle'
'skulda'
'skip_'
'skemm'
'sk'
'sjó'
'sign'
'sible_'
'share_'
'sek'
'scr'
'scheme_'
'sc'
'san'
'samsett'
'samráði_'
'samantekt_'
'ræði'
'rod'
'roc'
'ris'
'rig'
'residues_'
'recovery_'
'reasonable_'
'questions_'
'prófa_'
'pró'
'projects_'
'prev'
'practice_'
'potassium_'
'placing_'
'pharmacokinetic_'
'pharmacist_'
'persónu'
'pay'
'oy'
'ote'
'os_'
'ort'
'operational_'
'ont'
'oi'
'office_'
'nut'
'nurse_'
'nun'
'notkunar'
'nni'
'neuro'
'net'
'nað_'
'mótefni_'
'mæt'
'málum_'
'málsmeðferðina_'
'myself_'
'ms'
'mn'
'miðu'
'mind_'
'min'
'milli'
'miklum_'
'mikil_'
'merkja'
'meginreglu'
'meaning_'
'meal_'
'md'
'manneldis_'
'makes_'
'lögbærum_'
'línu_'
'lífs'
'lækninum_'
'lyfi_'
'lut'
'location_'
'llu'
'linn_'
'lia'
'leiðrétt'
'legra_'
'lað'
'lang'
'landa_'
'kól'
'kí'
'kveða_'
'kur'
'krabbamein_'
'kni'
'klínískt_'
'kjölfar_'
'kip'
'já'
'ira'
'intravenous_'
'interferon_'
'inni'
'industrial_'
'indu'
'indent_'
'improvement_'
'ig_'
'ient_'
'idi'
'ically_'
'ib'
'hro'
'hrif'
'hlað'
'hj'
'hemla'
'heims'
'heilsu'
'healthy_'
'hat'
'guys_'
'giving_'
'gh'
'ggi'
'ges_'
'gerðum_'
'gerðarviðurkenningar'
'fú'
'fð'
'fí'
'færi'
'fáanleg'
'fylg'
'ft_'
'frumna_'
'fresh_'
'fremur_'
'flæði'
'felur_'
'fea'
'facility_'
'ex'
'erta'
'enz'
'entire_'
'employment_'
'elect'
'egra'
'ee'
'door_'
'dle'
'disorders_'
'dil'
'develop_'
'dead_'
'construction_'
'confirm'
'confi'
'concentrate_'
'comm'
'cm_'
'classes_'
'city_'
'chan'
'carbon_'
'bæ'
'byrjað_'
'bráða'
'blöndun_'
'bir'
'bind'
'bens'
'aukið_'
'audi'
'asta'
'assessed_'
'ame'
'aluminium_'
'alu'
'alt'
'ad_'
'abl'
'Ty'
'Taktu_'
'TT'
'TR'
'Sá_'
'Sy'
'Sn'
'Sk'
'See_'
'Ru'
'Rev'
'Official_'
'Of_'
'Of'
'OT'
'NN'
'Mix'
'Keep_'
'J_'
'Inf'
'IS_'
'IR'
'Food_'
'FOR_'
'During_'
'DU'
'Cap'
'Av'
'30'
'.,_'
'.) _'
'): _'
'):_'
'þroska_'
'útf'
'úrgangur_'
'öryggisb'
'öru'
'ökutækisins_'
'öku'
'ólga_'
'ínu'
'íd'
'æð_'
'álag'
'áf'
'Þess'
'Þe'
'Önnur_'
'® _'
'zone_'
'xe'
'word_'
'wee'
'vör'
'visi'
'virk'
'via_'
'verðum_'
'veri'
'vandlega_'
'vali'
'user_'
'usa'
'uppköst_'
'updated_'
'ungu'
'unglingum_'
'ult'
'ula'
'uit'
'tímabilinu_'
'tt'
'tilnefn'
'tað'
'tank'
'síðustu_'
'síð'
'stöð'
'stóð_'
'stofnunarinnar_'
'stefn'
'staðfestu_'
'staðal'
'stat'
'stand_'
'ssi'
'sof'
'skírteini_'
'skyn'
'skipt_'
'skilvirk'
'sið'
'sets_'
'sensitive_'
'sending'
'sei'
'scale_'
'samb'
'saf'
'rubber_'
'rin'
'reynd'
'return_'
'responsibility_'
'representatives_'
'regulated_'
'reglun'
'reg'
'recorded_'
'recognition_'
'pyr'
'proposals_'
'prom'
'prices_'
'possibility_'
'pho'
'pap'
'pabbi_'
'owe'
'ou'
'orð_'
'orð'
'oa'
'nýta_'
'núverandi_'
'nál'
'nleg'
'nil'
'neyt'
'muscle_'
'movement_'
'mixture_'
'minutes_'
'mental_'
'mas'
'lítil_'
'lífi_'
'lyfjafræðing'
'lun'
'lock'
'lið'
'lity_'
'link'
'leita'
'leifa_'
'latter_'
'lant'
'kve'
'kominn_'
'kju'
'kil'
'kaup'
'kanna_'
'jöfnu'
'jór'
'itt'
'itis_'
'ista'
'irðu_'
'ipt'
'inns'
'inndælingar'
'inflammation_'
'imports_'
'immediate_'
'ils_'
'hypersensitivity_'
'hr'
'hou'
'himnu'
'hers'
'heila'
'hef'
'heard_'
'hald'
'gúmmí'
'gur'
'graph'
'grape_'
'gn_'
'gin'
'geographical_'
'gat_'
'gagnkvæm'
'gagnas'
'félags'
'fyrirtækisins_'
'fulfil_'
'fna'
'flö'
'flugumferðar'
'fic'
'establishments_'
'endanleg'
'elle'
'eignar'
'ega_'
'efnis'
'efficiency_'
'dru'
'double_'
'disco'
'direct'
'diarrhoea_'
'deild_'
'cut'
'cross_'
'cri'
'copy_'
'continuous_'
'chemicals_'
'cargo_'
'capt'
'capsule_'
'bæt'
'but'
'bull'
'breyting_'
'breathing_'
'born_'
'bið'
'bilinu_'
'bil'
'bearing_'
'bað'
'baby_'
'aðrir_'
'aðilan'
'aða_'
'aukin_'
'audit_'
'ask_'
'arv'
'arsk'
'arising_'
'ans'
'ano'
'amínó'
'amm'
'aly'
'algeng'
'ago_'
'aftan_'
'afn'
'Without_'
'Um_'
'Two_'
'Tafla_'
'Sér'
'System_'
'Svi'
'Stat'
'Set'
'Pol'
'Notið_'
'Non_'
'No'
'NI'
'Mið'
'Meðferð_'
'Mal'
'MD'
'Lif'
'Jæja_'
'IV'
'IM'
'Há'
'Having_'
'Full'
'ENT'
'CT'
'Breyt'
'Breezhaler_'
'Bra'
'BI'
'Allar_'
'Ald'
'Adv'
'AR_'
'AI'
'69_'
'44'
'41_'
'33_'
'26'
'2014_'
'2013_'
'201'
'.‘_'
'þrýsti'
'ýru_'
'ýring'
'ýr'
'úrgangs'
'örugga_'
'ót'
'ópr'
'óme'
'ógleði_'
'ðri_'
'ír_'
'æðum_'
'ætt'
'æk'
'zation_'
'ygg'
'yfirráð'
'ya'
'ws_'
'wheel_'
'vín_'
'vélar_'
'væn'
'væm'
'vottunar'
'viðtaka'
'virku_'
'velt'
'vart_'
'variable_'
'vandamál_'
'valid_'
'ute_'
'usi'
'urð'
'urr'
'umsóknin'
'umbrot'
'uh'
'ud'
'tímabundið_'
'tun'
'tta'
'true_'
'tog'
'tning'
'tilgreind'
'tha'
'text_'
'tender'
'tch_'
'tauga'
'tam'
'tali'
'súlf'
'só'
'sérstökum_'
'sár'
'svið_'
'stóra'
'stund'
'studied_'
'strong_'
'ster_'
'stefnu_'
'starfrækslu_'
'son'
'solid_'
'sm'
'slíkra_'
'skjali'
'skil_'
'skel'
'skamm'
'sjóð'
'sinn'
'sig'
'serv'
'seg'
'sat'
'samt_'
'samsetningu_'
'samningnum_'
'samningi_'
'sali'
'sala'
'réttar_'
'rétta_'
'run'
'rp'
'route_'
'rn'
'rist'
'rise'
'ria'
'rg'
'residue_'
'remember_'
'reit'
'reikning'
'reikn'
'rdi'
'raw_'
'rannsóknar_'
'rannsókn'
'radio_'
'race'
'q_'
'punkt'
'próf_'
'properties_'
'preparations_'
'pli'
'phone_'
'pharmaco'
'peninga'
'pass'
'oxide_'
'ove'
'omi'
'older_'
'október_'
'ogen'
'ofan_'
'nýrra_'
'nægilega_'
'næ'
'nái'
'numbers_'
'nol'
'nnun'
'nnu'
'nit'
'negative_'
'nefnd_'
'mælis'
'mánuðum_'
'move_'
'motor_'
'missi'
'minnka_'
'mini'
'meðhöndlað'
'meltingar'
'mein'
'massa_'
'marki_'
'mani'
'manage'
'male_'
'majority_'
'lýs'
'lífe'
'lágmarki_'
'lympho'
'lun_'
'lu_'
'live_'
'lita'
'lim'
'lifur_'
'lesi'
'legu_'
'legg'
'leg'
'learn'
'latest_'
'lak'
'lagði_'
'kven'
'kostnaður_'
'kjöt'
'killed_'
'kennd'
'kannski_'
'jól'
'jákvæð'
'jar'
'jafa'
'interaction_'
'injections_'
'ingredients_'
'inal_'
'ign'
'ibr'
'ian'
'húðin'
'hólf'
'hæg'
'hámarksgildi_'
'hvar_'
'hreinsun_'
'horn'
'hlutum_'
'hliðar'
'hinn_'
'him'
'help'
'hell_'
'hagnað'
'grounds_'
'greining_'
'gr'
'ght'
'generation_'
'gain'
'fót'
'fær_'
'fyrirkomulag_'
'fur'
'frekar_'
'framf'
'fisk'
'filmuhúðaðar_'
'fever_'
'fast'
'fars'
'fail'
'eyes_'
'extension_'
'experiment'
'erfi_'
'engar_'
'endurskoðunar'
'endurskoða_'
'endo'
'ek_'
'eh'
'ecti'
'dol'
'discontinuation_'
'dioxide_'
'din_'
'diabetes_'
'deter'
'detect'
'depend'
'depart'
'deci'
'debt_'
'dam'
'containers_'
'conclusions_'
'clean_'
'cin'
'ches_'
'chemotherapy_'
'caution_'
'calcium_'
'bóta'
'bólgu'
'brún'
'brott_'
'bragð'
'boði'
'borg'
'blow'
'birta_'
'binding_'
'az'
'attention_'
'athuga_'
'ask'
'articles_'
'arr'
'applying_'
'ane'
'amendments_'
'alo'
'alle'
'alk'
'aldri_'
'alda'
'ags'
'agreed_'
'advanced_'
'achieve_'
'] _'
'Yfir'
'Va'
'Us'
'UL'
'Tv'
'Those_'
'Test_'
'TH'
'Sýn'
'Sí'
'Sjá'
'Sc'
'San'
'STA'
'SA_'
'Ret'
'PE'
'Nauðsynlegt_'
'Name_'
'NT'
'Mill'
'Með'
'MT'
'MENT'
'MA_'
'Kar'
'Je'
'It'
'Intr'
'Heiti_'
'Har'
'Han'
'Haltu_'
'HA'
'Good_'
'Fun'
'Flug'
'FO'
'Ey'
'Evrópu'
'Ekkert_'
'EX'
'ED'
'Cl'
'Bor'
'Bio'
'Ber'
'Bar'
'Appro'
'Anti'
'Ale'
'46'
'+_'
'+ _'
'('
'%'
' , _'
'þátttöku_'
'þvagi_'
'þróunar'
'þrep'
'þe'
'ýl_'
'úða'
'útsk'
'útl'
'úlín'
'öt'
'öl'
'óte'
'íði_'
'íki'
'étt_'
'æxlis'
'ætur_'
'æst'
'æskileg'
'æri_'
'áætlað'
'árleg'
'ákveðið_'
'Áhrif_'
'zu'
'zones_'
'young_'
'xý'
'xí'
'words_'
'wor'
'wish_'
'whe'
'wall_'
'vökva_'
'viðkvæm'
'vivo_'
'vic'
'vest'
'verðbréf'
'vert_'
'veittar_'
'vegg'
'unin'
'undirflokk'
'unc'
'umbúðum_'
'töflum_'
'tó'
'tæknis'
'ty'
'tvær_'
'transaction_'
'toll'
'tive_'
'tilteknu_'
'tia'
'ther_'
'terminal_'
'telst_'
'tekjur_'
'tein'
'technology_'
'tax_'
'taugak'
'tarfs'
'tals'
'tafar_'
'sýnir_'
'sölu'
'sín'
'sértæk'
'sért_'
'sérstaka_'
'sérhver'
'swallow'
'stöðlum_'
'stunda_'
'stud'
'structure_'
'strength_'
'str'
'stjórnar'
'stefnum'
'staðsetning'
'statistical_'
'specify_'
'sources_'
'soil_'
'snerti'
'sme'
'slepp'
'skö'
'skírtein'
'ská'
'skráningu_'
'skjöl_'
'skiptir_'
'skipa'
'skilningi_'
'ska'
'sjö'
'sjálfs'
'shar'
'sg'
'setur_'
'sensor'
'sell'
'save_'
'samleg'
'sameiginleg'
'ræm'
'rás'
'runn'
'rum'
'ru_'
'riti'
'rita'
'rev'
'rese'
'requires_'
'repeated_'
'reikningsskila'
'regluleg'
'rannsókna_'
'rafeinda'
'pun'
'publication_'
'prótín'
'prove'
'problem_'
'private_'
'prevention_'
'ppe'
'play_'
'pine_'
'perform_'
'parent_'
'pakkningu'
'pakkning'
'ow'
'oter'
'opin_'
'oph'
'olíu_'
'olo'
'oid'
'númer'
'nóvember_'
'næm'
'náms'
'nákvæmlega_'
'nor'
'nel'
'navigation_'
'mína_'
'mælingar_'
'mála'
'mt'
'mode'
'mmu'
'mjólkur'
'mina'
'micro_'
'með'
'measuring_'
'mars_'
'manufactured_'
'lögbæru_'
'lóðrétt'
'lækni_'
'láns'
'lyfjahvörf_'
'lyfjagjöf_'
'lofts'
'loftfar'
'lir'
'liqu'
'linked_'
'lines_'
'lie'
'leyfileg'
'legi'
'lb'
'launa'
'laun'
'last'
'langvinn'
'langtíma'
'lan_'
'labelling_'
'kvö'
'kvik'
'kröfu_'
'krafa_'
'kon'
'kki'
'kerfis_'
'kar_'
'jur'
'join'
'jafngild'
'ish'
'ior'
'insúlín_'
'installations_'
'inspect'
'innlend'
'innihaldi_'
'inng'
'inhibitor_'
'influence_'
'industry_'
'indication_'
'imp'
'ildi_'
'idin'
'identify_'
'ial_'
'hópa_'
'hærra_'
'hvor'
'hvarfa'
'hundr'
'hreyfi'
'hettuglasi_'
'heit'
'heimilisfang_'
'heild_'
'hafin_'
'guy_'
'guidelines_'
'guarantee_'
'grípa_'
'grí'
'greiðslur_'
'grav'
'glyco'
'glo'
'gjöld_'
'gildissvið_'
'gerði_'
'gerðar'
'gerning'
'geni'
'gef'
'gd'
'gau'
'félagsleg'
'fé'
'fyrirfram'
'fylgis'
'fulltrúa_'
'fuck_'
'fræði'
'fro'
'friends_'
'framsel'
'framk'
'foodstuffs_'
'flutt'
'flugvél'
'flugs'
'flugrekanda'
'fjárfesti'
'fjarlægja_'
'fing'
'findings_'
'fied_'
'fann_'
'exposures_'
'experienced_'
'exempt'
'exactly_'
'eve'
'ete'
'establishing_'
'endi'
'endapunkt'
'elds'
'eldis'
'eins'
'eiginleikum_'
'eg'
'efninu_'
'efficient_'
'ds'
'dosage_'
'dl_'
'disposal_'
'destination_'
'deleted_'
'deg'
'definition_'
'dd_'
'dangerous_'
'cs_'
'coo'
'conversion_'
'contamination_'
'conta'
'consumers_'
'conduct_'
'companies_'
'communication_'
'cold_'
'c'
'bý'
'báðum_'
'bundin_'
'bréf'
'brigð'
'breytinga_'
'bjúgur_'
'bin'
'bili'
'bid'
'bi_'
'barn'
'ba_'
'aðla'
'aðir_'
'aðgerðum_'
'aðgengileg'
'auga'
'assistance_'
'arst'
'ants_'
'ang_'
'amending_'
'amen'
'aksturs_'
'agi'
'agent_'
'actually_'
'across_'
'Tilskipun_'
'TER'
'TC'
'Sol'
'Skrá'
'Ske'
'Sim'
'Sen'
'Sams'
'Sal'
'Resp'
'Q_'
'Part'
'PO'
'PE_'
'PD_'
'October_'
'November_'
'ND'
'Mig_'
'LU'
'Ir'
'General_'
'GR'
'Fær'
'Fl'
'EG'
'E172_'
'Cro'
'Convention_'
'Bas'
'B2'
'AÐ'
'Ava'
'Air_'
'AZ'
'AL'
'84_'
'800_'
'78_'
'74_'
'71'
'61_'
'38'
'37'
'1993_'
'199'
'120_'
'... '
')-_'
' ._'
'“'
'þættir_'
'þurft_'
'ým'
'útreikning'
'örnu'
'öngu'
'öld_'
'óbein'
'ðra_'
'ðið_'
'íðs_'
'æli'
'áætlunum_'
'áætlunarinnar_'
'ávinning'
'áttu_'
'ás_'
'álit'
'ákvarðað_'
'Þær_'
'Ý'
'yla'
'ya_'
'work'
'whom_'
'weigh'
'wasn_'
'vöðva_'
'vörunnar_'
'vísi'
'viðurkenndu'
'viðmiðunarmörk_'
'vitað_'
'vilt_'
'vild'
'verklagsreglu'
'veldur_'
'varp'
'vari'
'varanleg'
'ute'
'uta'
'upps'
'upphafs'
'upphafi_'
'uma'
'uce'
'uc'
'tube_'
'ttu'
'trúa'
'transpo'
'transitional_'
'tract_'
'tom'
'tin_'
'tim'
'tilrauna'
'tilraun'
'tillögur_'
'thro'
'thin'
'tenofovir_'
'tch'
'tann'
'tafla_'
'sæk'
'sykur'
'svip'
'super'
'stýri'
'stöðvar_'
'stæð'
'styðja_'
'stundum_'
'store_'
'steps_'
'steel_'
'stafa'
'smell'
'slo'
'skyldu'
'skilvirka'
'skila_'
'sjúkdóms'
'situations_'
'sinna_'
'sia_'
'shares_'
'sfr'
'sermi_'
'sein'
'sati'
'samningum_'
'réttar'
'ráðlagð'
'rla'
'rið'
'riva'
'rim'
'ria_'
'ret'
'requested_'
'replacement_'
'remaining_'
'reiknað_'
'reikna_'
'records_'
'reb'
'reach_'
'rd'
'radiation_'
'ract'
'q'
'publish_'
'prófunin'
'properly_'
'proper_'
'pro_'
'prefer'
'pred'
'ppi'
'policies_'
'pira'
'personnel_'
'permitted_'
'peg'
'pathy_'
'passengers_'
'pH_'
'oð'
'oxý'
'output_'
'ously_'
'oss'
'orti'
'org'
'ore'
'onary_'
'ole'
'often_'
'od'
'occurrence_'
'næstu_'
'næsta_'
'nálægt_'
'nákvæm'
'non'
'nokkrum_'
'nk_'
'nitr'
'nic_'
'nib_'
'networks_'
'nef'
'nder_'
'naðar'
'natríum_'
'nam'
'nal'
'mörku'
'mínum_'
'mál'
'mynda_'
'mur'
'multiple_'
'mou'
'miða_'
'mixed_'
'minnst_'
'mide_'
'metformin_'
'menntun_'
'member_'
'median_'
'measurements_'
'marks_'
'marka_'
'mab_'
'lýsa_'
'lönd_'
'lögg'
'lögbærra_'
'líklegt_'
'lækka_'
'lyfjag'
'lokk'
'log'
'loftför'
'located_'
'liz'
'lin_'
'leyfð_'
'leiðin'
'leið'
'large'
'language_'
'ky'
'kun_'
'kró'
'krá'
'kort'
'konur_'
'klukkustundir_'
'kja'
'ki'
'kerfis'
'kenn'
'kemst_'
'kap'
'kammt'
'jón_'
'jafna_'
'iða'
'item_'
'issues_'
'ipi'
'introduction_'
'interval_'
'installed_'
'innr'
'infrastructure_'
'iness_'
'increases_'
'impaired_'
'imi'
'im_'
'iation_'
'högg'
'hydro'
'hvata'
'hvarf'
'hlutar_'
'hlutabréf'
'hljó'
'histo'
'highest_'
'hia'
'hent'
'heima_'
'happened_'
'ha_'
'gðu'
'guidance_'
'gol'
'glucose_'
'glob'
'geno'
'gengur_'
'gena'
'fæst_'
'færðu'
'fært_'
'fylgi'
'frí'
'fræðilega_'
'framleitt_'
'fosfat_'
'fos'
'forma'
'fold_'
'firm_'
'finished_'
'ff_'
'ferr'
'fel'
'fare'
'fai'
'every'
'etýl'
'etu'
'eter'
'esti'
'est'
'era_'
'ensím'
'ene'
'eldsneyti_'
'ekk'
'eint'
'eignir_'
'egu'
'efn'
'eat_'
'ead_'
'dálk'
'dá'
'dynamic_'
'dosing_'
'distance_'
'differ'
'detection_'
'derived_'
'demonstrate_'
'dec'
'dagur_'
'ction'
'correspond'
'correct_'
'corr'
'context_'
'consultation_'
'constitute_'
'cons'
'concern_'
'commit'
'clo'
'cke'
'cit'
'circu'
'changed_'
'cha'
'cel'
'cas'
'carbo'
'capable_'
'bín'
'burt_'
'brother_'
'brenn'
'break'
'bottle_'
'blá'
'blokk'
'bis'
'biocidal_'
'back'
'aðgerð_'
'aðgangs'
'avir'
'aviation_'
'authorized_'
'aukinni_'
'auk'
'augum_'
'asti'
'aspects_'
'ase_'
'arl'
'apparatus_'
'alvarlegum_'
'almenn_'
'allow'
'alid'
'ald'
'ah_'
'agr'
'agl'
'aged_'
'aft'
'afhenda_'
'acr'
'accounts_'
'accounting_'
'Wh'
'Vis'
'Veistu_'
'Van'
'US'
'UM'
'Total_'
'Thi'
'Takk_'
'Stand'
'Some_'
'Sho'
'Red'
'Qui'
'Ph'
'Over'
'March_'
'MS_'
'MB'
'Líf'
'Komdu_'
'IP'
'Hver'
'Hr'
'Hon'
'Heildar'
'Hand'
'HR'
'HD'
'HBV_'
'Gal'
'Fu'
'From_'
'Fil'
'Figure_'
'FT'
'Eg'
'Ea'
'ED_'
'Cy'
'Cre'
'Ban'
'Auk'
'August_'
'And'
'Almenn'
'Add'
'63_'
'24'
', (_'
'".'
'þynnu'
'þurrku'
'þarf'
'útsetning_'
'útgáfu'
'öskju'
'öryggisst'
'örun'
'ökutækjum_'
'ök'
'óðu'
'óð'
'ótt'
'óháð'
'ður'
'ðg'
'ðan'
'íum_'
'ítarleg'
'æxlun_'
'æg'
'ástæður_'
'ymi'
'yea'
'wing_'
'whi'
'weak'
'viðskiptum_'
'viðhalds'
'virt'
'vil'
'vernda_'
'verified_'
'vaxtar'
'usly_'
'update_'
'unf'
'umhverfið_'
'uli'
'ue'
'uct'
'tter'
'tte'
'transactions_'
'town_'
'tools_'
'tm'
'tiltekna_'
'tiltekinna_'
'tight'
'tics_'
'tial_'
'tengsl_'
'tegundar'
'tation_'
'tappa_'
'takmörkun'
'takmarka_'
'sýra_'
'síðast_'
'síðari_'
'síman'
'sérstakt_'
'suspected_'
'survival_'
'supposed_'
'supplier_'
'sul'
'suc'
'stungu'
'strák'
'stoð'
'stomach_'
'stjórnunar'
'stic'
'staðla'
'starfræk'
'staff_'
'spá'
'specifically_'
'sometimes_'
'solutions_'
'smo'
'skurð'
'skað'
'skan'
'sjúkdómur'
'sive_'
'siglinga'
'si_'
'showed_'
'ship'
'sheet_'
'sey'
'settle'
'sermi'
'sem'
'sectors_'
'sea_'
'schedule_'
'says_'
'satt_'
'samstarf'
'safn'
'sac'
'réttur_'
'rétti_'
'ræðu'
'ræktun_'
'rre'
'rou'
'ron'
'reyn'
'reviewed_'
'restrictions_'
'resid'
'rekstur_'
'reiðu'
'ree'
'rect'
'raun_'
'ran_'
'rak'
'quently_'
'quantities_'
'py'
'pursu'
'pt_'
'proposal_'
'progr'
'profit_'
'profile_'
'pos'
'por'
'pollution_'
'poka'
'plasmaþéttni_'
'payments_'
'pass_'
'par_'
'paper_'
'overdose_'
'ose'
'oo'
'oid_'
'nýt'
'nálin'
'nsu'
'nse'
'niðurstaðna_'
'niðurbrot'
'nge'
'nf'
'neð'
'neu'
'nei_'
'ned_'
'ndr'
'nda'
'nauðsynleg'
'nausea_'
'nation_'
'nap'
'mý'
'myr'
'myo'
'muni'
'muna'
'minn'
'million_'
'mill'
'meðallagi_'
'metha'
'meter_'
'mes'
'menningar'
'mengun_'
'media_'
'matvælum_'
'matvæla'
'mation_'
'mate'
'manufacturing_'
'manufacturers_'
'manni_'
'mali'
'magnes'
'magn'
'lýkur_'
'lý'
'lú'
'líta_'
'lífveru'
'lífeyris'
'læknis_'
'læknis'
'lægri_'
'lána'
'lyfs_'
'lyfjafræðileg'
'llin'
'lists_'
'listen_'
'lista_'
'les'
'laust_'
'lag_'
'kvið'
'kst'
'kir'
'jóna'
'isa'
'investments_'
'intervals_'
'instruct'
'initia'
'inhibit'
'infected_'
'impos'
'illa_'
'hó'
'hypert'
'hugsa_'
'hreyfil'
'hrað'
'hjartabilun_'
'hið_'
'hitt'
'het'
'heilbrigðum_'
'hefðbundn'
'hazard_'
'harvest'
'handb'
'ham_'
'hagskýrslur_'
'guð'
'guess_'
'græn'
'gram_'
'gotta_'
'genera'
'föl'
'fólki_'
'fyrirtækið_'
'funds_'
'fræðilegar_'
'freedom_'
'framleidd_'
'forskrift'
'fors'
'fni'
'fire'
'fil'
'farm_'
'falleg'
'expect'
'excluded_'
'evaluated_'
'estr'
'est_'
'erfitt_'
'equity_'
'ep_'
'entered_'
'ensuring_'
'ens_'
'em_'
'ell'
'eldsneytis'
'einstak'
'eigandi_'
'eftirlits_'
'efnin_'
'efi'
'ede'
'eat'
'ea_'
'dýr'
'dú'
'dreifi'
'drawn_'
'dr'
'dispos'
'disc'
'deli'
'degree_'
'deemed_'
'declaration_'
'currently_'
'creatinine_'
'cos'
'coordinate'
'contraceptive'
'continued_'
'considers_'
'communications_'
'colour_'
'closed_'
'cleaning_'
'clari'
'cies_'
'charges_'
'caused_'
'ca_'
'búnaðarins_'
'broadcast'
'brid'
'breeding_'
'braut'
'bou'
'borið_'
'blister_'
'black_'
'bif'
'bic'
'betur_'
'belonging_'
'bee'
'batter'
'barnið_'
'bar_'
'band_'
'bad_'
'aðstoðar_'
'aðs'
'aðallega_'
'aða'
'auðkenni'
'aukningu_'
'asy'
'aset'
'apre'
'appear_'
'app'
'ante'
'ality_'
'aldurs'
'alds'
'aka'
'aim_'
'agnir_'
'afrit_'
'afk'
'adv'
'accordingly_'
'accompanied_'
'abs'
'abdominal_'
'Zon'
'Wi'
'Vegna_'
'UT'
'Treatment_'
'Ten'
'TRE'
'Standard_'
'Spa'
'Sko'
'Sil'
'Ser'
'SL'
'Reyn'
'Rea'
'Ras'
'National_'
'NG'
'MP'
'Journal_'
'IU_'
'IO'
'IL_'
'Hér_'
'Hve'
'Hu'
'Hins_'
'Hafðu_'
'Gæta_'
'Greint_'
'Gre'
'Gra'
'Frá'
'Fra'
'Flavis_'
'Fj'
'Evrópubandalagsins_'
'Eig'
'ET'
'Dy'
'Dis'
'Den'
'Dar'
'DO'
'Cos'
'Cont'
'Charl'
'Cal'
'CYP2'
'Board_'
'Bla'
'Auk_'
'Au'
'Att'
'Alþjóða'
'Alt'
'Algengar_'
'Agreement_'
'43_'
'2015_'
'1990_'
'07_'
'/'
').'
'), (_'
'%._'
'þyngdar'
'þvotta'
'þurfi_'
'þunguð_'
'þrúgu'
'þróunar_'
'þrá'
'þriggja_'
'þre'
'þil'
'þak'
'ýru'
'ýra_'
'ýmsu'
'ýk'
'úts'
'útreikning_'
'örum_'
'örku'
'ót_'
'óri'
'ólík'
'ókn'
'ít'
'íku'
'íhluta_'
'ía_'
'éttni_'
'ættir_'
'æti_'
'æl'
'ægi'
'áætlun'
'áætlanir_'
'átta_'
'árlega_'
'árin'
'áliti_'
'ákvörðunar_'
'ákvæða_'
'ákveðna'
'áhættumat'
'ágúst_'
'Ð'
'zí'
'yrði_'
'ylene_'
'wrong_'
'wife_'
'vörunni_'
'vö'
'vísa'
'væg'
'váhrifa'
'vottorð'
'villa'
'vikum_'
'verð'
'veruleg_'
'verslun'
'verndar_'
'verja'
'vera'
'venti'
'vegi_'
'vax'
'vast'
'vald'
'usn'
'urn'
'uppruna_'
'uppr'
'upplýsa_'
'uppl'
'umsækjanda'
'tíðni'
'tíu_'
'tín'
'tíman'
'tækjum_'
'tækin'
'typical'
'transi'
'trade'
'toxic_'
'tonn'
'tolera'
'tofnun'
'tjá'
'tion'
'ting'
'time'
'tillögu_'
'tilkynningu_'
'throughout_'
'themselves_'
'thal'
'tengja_'
'temp'
'tem'
'takes_'
'tag'
'sýnis'
'sú'
'sökum_'
'sím'
'svín'
'sviðum_'
'surviv'
'supplies_'
'summ'
'stöð_'
'stí'
'structural_'
'stofnun'
'stofni_'
'sting'
'stig'
'sterk'
'staða_'
'starfi_'
'stan'
'stai'
'staf'
'spot_'
'sparkling_'
'sorb'
'sna'
'smíða'
'slys_'
'slaughter'
'skýrslu'
'skuldbindingar_'
'skránni_'
'skipi'
'skili'
'skalt_'
'sjúklinga'
'sjálfstæð'
'situated_'
'sim'
'short'
'setti'
'setning_'
'sep'
'selja_'
'segi'
'seek_'
'sand'
'samvinnu_'
'samræmingu_'
'samfelld'
'samanburðar'
'rði'
'ræ'
'rte'
'ric_'
'reyndi'
'reveal'
'reti'
'resistant_'
'remove_'
'reið'
'reis'
'regarded_'
'refer_'
'reco'
'raka'
'rac'
'quit'
'prófunaríðefni'
'prófunarefni'
'provider_'
'prol'
'project_'
'produce_'
'pret'
'plate_'
'pil'
'pigs_'
'pick'
'peripheral_'
'parti'
'parameters_'
'pam'
'pakkningastærðir_'
'pakka'
'oxy'
'owner_'
'outer_'
'ound_'
'oun'
'oti'
'ost'
'orn'
'operate_'
'oll'
'occurs_'
'nýti'
'námu'
'náið_'
'nyt'
'note_'
'nið'
'nig'
'nguish'
'ngl'
'nefndar_'
'ndu'
'nding'
'ndi'
'nc'
'mú'
'móð'
'mæld_'
'málefni_'
'mála_'
'myndir_'
'mynd'
'mutation'
'mur_'
'munur_'
'mul'
'moving_'
'morning_'
'modified_'
'modification_'
'miðju'
'mixtures_'
'miss_'
'mir'
'meðferðina_'
'meðaltal_'
'menta'
'meina'
'med'
'maí_'
'marr'
'marking_'
'markaðssett'
'mail_'
'líða'
'lítið_'
'líkur_'
'létt'
'lta'
'lokum_'
'loka_'
'logy_'
'ligg'
'lendi'
'legan_'
'langvarandi_'
'langar_'
'landamær'
'lamivudine_'
'kynja_'
'kostnaði_'
'konung'
'konu_'
'knows_'
'kn'
'kló'
'klínísk_'
'kláði_'
'kkur_'
'kerfum_'
'kel'
'kalk'
'júkdóm'
'jón'
'jurta'
'jarðvegs'
'iðu'
'ized_'
'itud'
'ism'
'isation_'
'ious_'
'inv'
'introduced_'
'interfer'
'inter_'
'ink'
'inject'
'initiated_'
'inh'
'inco'
'inat'
'igat'
'ified_'
'ids_'
'ico'
'hýdró'
'hý'
'hæfileg'
'host_'
'hm'
'hlý'
'hlutfalli_'
'hluta'
'hljóð_'
'hettuglös'
'hes'
'haven_'
'hannað'
'handling_'
'hamla'
'góða_'
'góð_'
'gula'
'guide'
'grou'
'greina'
'gler'
'gja'
'gildum_'
'gefn'
'game_'
'gagn'
'fóður_'
'fín'
'fyrra_'
'functions_'
'functional_'
'fullnægt_'
'fulln'
'fullgilding'
'frásog'
'frjáls'
'frama'
'forward_'
'flösku'
'flutt_'
'flugrekendu'
'flest'
'fjöls'
'fjárhæð'
'fjars'
'filter_'
'fal'
'facilitate_'
'eyr'
'exist_'
'exa'
'evr'
'essi'
'erð_'
'ener'
'ened_'
'endurt'
'encourage_'
'embryo'
'eir'
'einhvern_'
'eil'
'eigið_'
'dö'
'dyr'
'duft_'
'dræ'
'dreg'
'dre'
'doors_'
'dl'
'discriminat'
'dio'
'destr'
'derivative'
'dependent_'
'demi'
'declared_'
'dd'
'daginn_'
'cut_'
'cro'
'conve'
'contraindicated_'
'contra'
'communicate_'
'colourless_'
'ching_'
'chance_'
'centre_'
'caus'
'cap_'
'byssu'
'bráð'
'breytt'
'brennisteins'
'bound_'
'book_'
'blöndu_'
'blóðþ'
'blóðfl'
'bland'
'bit_'
'benz'
'bent'
'belti'
'belt_'
'beina_'
'batch_'
'bandalag'
'bal'
'bac'
'aðildarríkinu_'
'awarded_'
'aw'
'ava'
'atte'
'attack'
'attach'
'atn'
'ati_'
'arin'
'arfsemi_'
'ardi'
'ard_'
'any'
'among_'
'amino'
'alí'
'almennu_'
'almanna'
'alan'
'aksturs'
'akstur_'
'agna_'
'aga'
'afturkalla_'
'aftur'
'adoption_'
'administ'
'adi'
'acet'
'Yo'
'Work'
'VT'
'Undir'
'UG'
'TU'
'Síðan_'
'Sur'
'Stre'
'Stjórnartíðindum_'
'Sjáðu_'
'Samþykk'
'Sameinuðu_'
'SEM_'
'Ráðl'
'Ráð'
'Rob'
'Ric'
'Rannsókn'
'Raf'
'RT'
'QU'
'Opti'
'Ol'
'OR_'
'Nor'
'Neo'
'Mæl'
'Mini'
'Min'
'Mik'
'Mem'
'Magn'
'Lít'
'Lev'
'LL'
'Ky'
'Insu'
'IN_'
'II'
'Hvaða_'
'Hen'
'Hald'
'HS'
'HI'
'GM'
'GA_'
'Fy'
'Framleið'
'Ev'
'Engi'
'EUR_'
'EA'
'Doc'
'DR'
'DE_'
'Comm'
'Com'
'Clopidogrel_'
'Class_'
'Chi'
'CON'
'Blóð'
'Bet'
'Always_'
'ATION_'
'þínu_'
'þátttakendu'
'þáttar_'
'þátta_'
'þráðlaus'
'þjóðanna_'
'þekk'
'ýr_'
'únað'
'úmer_'
'öð_'
'önd'
'ön'
'óve'
'ótt_'
'óle'
'ógen'
'ðurinn_'
'ðferð_'
'ðas'
'ínó'
'ílát_'
'íla'
'íhuga_'
'æfi'
'áta'
'ástandi_'
'áhætta_'
'áframhaldandi_'
'µg_'
'zól'
'yrt'
'yme'
'yfirlýsingu_'
'ye'
'xy'
'writing_'
'wonder'
'weight'
'website_'
'wastes_'
'ward_'
'walk_'
'vökva'
'vélin'
'vægt_'
'væ'
'váhrif_'
'vott'
'viðhaldi'
'viðbót_'
'viat'
'vessel_'
'vertical_'
'verkur_'
'velja_'
'vatna'
'varma'
'utu'
'usta'
'ural'
'upprunn'
'upprunaleg'
'upplýst'
'undirlið'
'umtalsverð'
'ulo'
'ull'
'trans_'
'tory_'
'tinib'
'tiltæk'
'tilheyrir_'
'tid'
'thus_'
'texti'
'tenging'
'tengdar_'
'teng'
'tekinn_'
'techniques_'
'tan_'
'takmarka'
'sýndu_'
'sést_'
'sæði'
'svæðis'
'svit'
'svipuð_'
'svart'
'sva'
'success'
'stö'
'stóru'
'stofnunar_'
'stofnana_'
'stj'
'sting_'
'stimp'
'stilling'
'staðlað'
'staðfest'
'staðal_'
'starfsvenju'
'stability_'
'sprautu_'
'sprauta_'
'specif'
'slík'
'ský'
'skrár_'
'skrá'
'skrifstofu'
'skrifleg'
'skoða_'
'skjót'
'skjal'
'skipulag'
'skilst_'
'skemmd'
'skatt'
'skammt'
'sjúkra'
'sjúklingur_'
'sjóðs'
'sjálfvirk'
'sjálfur_'
'sit'
'separate'
'selected_'
'see'
'scen'
'saw_'
'sannprófa'
'samþætt'
'samþykktu'
'samt'
'sams'
'samningar_'
'salem_'
'safna_'
'rör'
'ríki'
'rule_'
'ruct'
'rst'
'rsl'
'romi'
'ril'
'retr'
'ress_'
'removed_'
'relationship_'
'relat'
'regulation_'
'regional_'
'regimen_'
'red'
'reconstituted_'
'reached_'
'rc'
'rare_'
'rar'
'rannsóknarstofu'
'puri'
'pulmonary_'
'providers_'
'prob'
'priorit'
'print'
'primarily_'
'press'
'precautions_'
'practical_'
'pi_'
'pe_'
'passi'
'passenger_'
'outcome_'
'osp'
'orl'
'ories_'
'ora'
'opnu'
'oma_'
'ok_'
'offered_'
'odo'
'oca'
'nýrnas'
'nótt_'
'níu'
'nunar'
'nsk'
'niður'
'nina_'
'nie'
'ngu'
'new'
'nefndin_'
'nded_'
'ncy_'
'nces_'
'naði_'
'nav'
'mæ'
'mátt_'
'myndi'
'myelo'
'mycin_'
'munu_'
'miðlungs'
'minor_'
'minnkun_'
'mine'
'microbi'
'metal_'
'metabolism_'
'merkt'
'merking'
'ment'
'menni'
'maybe_'
'massa'
'markets_'
'manna'
'maga'
'lögðu'
'lögm'
'lögaðil'
'lö'
'línu'
'lífshættuleg'
'líffær'
'lé'
'lækninga'
'lvi'
'lus'
'love'
'lof'
'lli'
'ljósa'
'liða_'
'lives'
'lit_'
'lista'
'lid'
'licit'
'lgar'
'leysa_'
'leuk'
'lest'
'lengdar'
'leiðbeiningum_'
'leiðar'
'lei'
'leaflet_'
'leading_'
'ldr'
'ldi'
'lda'
'laying_'
'lay'
'lamp_'
'kúlu'
'kólesteról'
'kín'
'kynning'
'kvöld_'
'kvæm'
'kvill'
'kuld'
'kreatínín'
'komu'
'kka_'
'kið_'
'kipt'
'kin_'
'keyr'
'járnbraut'
'junum_'
'ji_'
'ject'
'jarðolíu_'
'jafnframt_'
'ition'
'iss'
'irk'
'investigation_'
'int'
'inso'
'inse'
'innflutning'
'induce'
'includes_'
'import'
'implement_'
'ima'
'ily'
'ilt_'
'iki_'
'iii_'
'iefn'
'ica_'
'hörð_'
'hóp'
'hálfu_'
'hydrate_'
'hugbúnað'
'hth'
'house'
'hone'
'hlutir_'
'hlutdeildar'
'highly_'
'hexa'
'helstu_'
'heilsu_'
'happen_'
'halo'
'hair_'
'hafið_'
'gætir_'
'gufu'
'gripið_'
'greiðslu_'
'greidd'
'gram'
'gone_'
'gnan'
'glasi'
'ggj'
'geymslu'
'gent'
'gel_'
'geislun'
'garð'
'gal'
'gaf_'
'föstu'
'fóstur'
'fæði'
'fái_'
'fyrirtækinu_'
'fyrirhugaða'
'fying_'
'frábær'
'frammistöðu'
'framleiðsluferli'
'framleiða_'
'framkvæmda_'
'fraction'
'fosfat'
'forða'
'forme'
'flý'
'flugv'
'flug_'
'flokkunar'
'fjármagn'
'fjárhagsleg'
'fjárfesta_'
'fjarlægð_'
'fjarlæg'
'fjandan'
'fit'
'fill'
'fil_'
'fici'
'fication_'
'festing'
'ferði'
'fersk'
'feet_'
'farþega_'
'falling_'
'eyfi'
'extract'
'extended_'
'exi'
'exception_'
'ettu'
'ethyl_'
'esi'
'erð'
'equipped_'
'entitled_'
'eno'
'enforcement_'
'emi'
'einstakling'
'egi'
'eftirlitsyfirvald'
'eftirlitsst'
'efnafræðileg'
'eff'
'efavirenz_'
'ef'
'ee_'
'eb'
'dýraheilbrigðis'
'dóms'
'dóm'
'dæm'
'dver'
'duties_'
'dun'
'duction_'
'dog_'
'djúp'
'distribut'
'distr'
'dist'
'dilution_'
'differences_'
'developing_'
'delivered_'
'deficiency_'
'decided_'
'das'
'dagleg'
'cý'
'create'
'cre'
'couple_'
'correct'
'contribute_'
'consi'
'conse'
'conform_'
'complex_'
'compa'
'comp'
'combined_'
'cin_'
'characteris'
'central_'
'carefully_'
'card'
'cam'
'call'
'calendar_'
'calc'
'búj'
'bóluefni_'
'bos'
'blöndur_'
'blæðingar_'
'blandað'
'birgð'
'betri_'
'besta_'
'best'
'beina'
'bei'
'beautiful_'
'bear_'
'base_'
'aþ'
'aðstöðu_'
'aðskild'
'aðlaga_'
'aðgerða'
'aðferðar'
'avír'
'auðvelda_'
'aur'
'ator'
'athugasemd'
'asta_'
'asse'
'arte'
'arriv'
'arnar'
'api'
'annarrar_'
'angio'
'andr'
'ance'
'analytical_'
'ams'
'ammt'
'almenna_'
'ak_'
'ahe'
'agn'
'afhent'
'afgreiðslu'
'ae_'
'adver'
'admi'
'adjustments_'
'aden'
'actual_'
'acquisition_'
'ach'
'ace'
'accuracy_'
'absorption_'
'abe'
'Zentiva_'
'Ye'
'Wal'
'Vin'
'Var_'
'VO'
'Uncommon_'
'Um'
'Trans'
'Tr'
'Tel'
'Technical_'
'Taka_'
'TS_'
'TIL_'
'Svona_'
'Step'
'Slík_'
'Sky'
'Sjaldgæfar_'
'September_'
'Segðu_'
'Sann'
'SM'
'Ros'
'Pur'
'PU'
'PD'
'Os_'
'OK_'
'OC'
'Nu'
'NING'
'NC'
'Má_'
'Mor'
'Mic'
'Med'
'Matvælaöryggisstofnunin_'
'Lok'
'Lin'
'Lea'
'Lang'
'Ko'
'Ken'
'KA'
'Jac'
'Inv'
'IgG'
'Hö'
'Heil'
'Health_'
'HP'
'HO'
'HCT_'
'Gef'
'FYRIR_'
'Exp'
'Euro'
'Es'
'Ep'
'EMEND_'
'Dr_'
'Coo'
'Conf'
'Code_'
'Bene'
'Because_'
'Bab'
'BC'
'BA_'
'Aðrar_'
'AÐ_'
'Ara'
'Ai'
'Additional_'
'AN_'
'AM'
'>'
'90'
'85'
'70'
'60'
'54'
'53_'
'35'
'25'
'2092_'
'125_'
'08_'
'04_'
'040'
'.“'
'.;  _'
', -'
'); _'
'%, _'
'þörf'
'þrýstingur_'
'þrjár_'
'þjón'
'þa'
'úthluta'
'útgáfa_'
'útboðs'
'útb'
'örugga'
'örf'
'öndun_'
'ökk'
'ögn_'
'öfnu'
'óls'
'óeðlileg'
'ðinn'
'ðin_'
'ðferð'
'íka'
'íg'
'íb'
'étta'
'élags'
'é_'
'ætluð_'
'ætlun'
'ækk'
'æki'
'ána'
'áli'
'ákvörðun'
'ákvæðin_'
'ákvarðana'
'ábyrgðar'
'Ó_'
'ÐI'
'Ár'
'zy'
'yðar_'
'ysi_'
'ysi'
'yf'
'yes_'
'worth'
'wn'
'whatever_'
'wer_'
'vörslu'
'vítamín'
'vísindaleg'
'vísa_'
'vír'
'vík'
'væði'
'vátrygginga'
'vul'
'vottorði'
'viðmiðunarm'
'viðmiðanirnar_'
'viðhald_'
'viðaukan'
'virða'
'vinnust'
'vinn'
'vigt'
'vettvang'
'vetniskolefn'
'verðbréfasjóð'
'vern'
'verkunar'
'verkefni'
'verf'
'vefs'
'varð'
'varieties_'
'varan_'
'vantar_'
'vand'
'vaccination_'
'upptöku'
'uppfæra_'
'umst_'
'ugu'
'tú'
'töð'
'töflunni_'
'tímabil'
'tím'
'tí'
'tær_'
'tækifæri_'
'tyre'
'tvís'
'tveir_'
'tun_'
'tti_'
'tró'
'tryggir_'
'truflanir_'
'treymi_'
'trefja'
'transporte'
'toy'
'towards_'
'tors_'
'tof'
'tissues_'
'tilstilli_'
'tilskipunum_'
'tilfellum_'
'tile'
'tie'
'tide_'
'thy'
'thv'
'threatening_'
'therm'
'thank_'
'terri'
'tengdi'
'telephone_'
'techn'
'tary_'
'sýkla'
'sýking_'
'sól'
'sérstöku_'
'sérstakar_'
'sérstak'
'sérhæfða_'
'sár_'
'sy'
'sviðs'
'sver'
'sveppa'
'sv'
'summary_'
'suffer'
'subs'
'subc'
'stál'
'styrkleik'
'stuðl'
'stur_'
'stuff_'
'story_'
'stopper_'
'stofnunin_'
'stofa_'
'stem'
'stea'
'staður_'
'staðnum_'
'stati'
'stab'
'squa'
'spur'
'spon'
'spil'
'sou'
'snú'
'slys'
'skýra_'
'sku_'
'skráðar_'
'skrokk'
'skip'
'skin'
'skilj'
'skilgreining'
'ski'
'skapa'
'ska_'
'sjóns'
'sing'
'simple_'
'sides_'
'series_'
'september_'
'sensiti'
'select'
'sega'
'schemes_'
'samsvarar_'
'samræmis'
'samkomulag'
'samein'
'ríbavírin'
'ræðir_'
'ræð'
'rækt'
'rug'
'ror'
'restriction_'
'ress'
'requests_'
'reining'
'reglurnar_'
'recip'
'reali'
'rannsakað'
'quick'
'qualified_'
'pó'
'purchas'
'pur'
'processed_'
'prepare_'
'prazole_'
'praz'
'possib'
'pol'
'plans_'
'pid'
'pheno'
'periodic_'
'pene'
'peginterferon_'
'pea'
'oversight_'
'otu'
'others_'
'ota_'
'orf'
'opna'
'ole_'
'ofur'
'ofnæmisviðbr'
'occu'
'observ'
'næst'
'næringar'
'nákvæmar_'
'nv'
'nst'
'nsa'
'notify_'
'notendur_'
'notaðir_'
'nokkur'
'neyslu_'
'nett'
'neti'
'nem'
'nefn'
'ndum_'
'nci'
'nb'
'nafn'
'mörkum_'
'mól'
'mínu_'
'myndast_'
'munni_'
'mode_'
'miðl'
'mismununar_'
'mile'
'mic_'
'mic'
'mf'
'merkingu_'
'merkimiða'
'meets_'
'massi_'
'markmiði_'
'margin'
'marga'
'manns'
'mamma_'
'lím'
'lyfjahvörfum_'
'ltu'
'lowe'
'losunar'
'lokun'
'lokað_'
'lokað'
'lokas'
'lofthæfi'
'loftfars_'
'llo'
'lka'
'ljó'
'litre'
'litla_'
'lish'
'limitation_'
'like'
'lifandi_'
'lie_'
'licence_'
'leð'
'leyf'
'leifar_'
'leggi'
'led'
'lausnin'
'landamæri_'
'lactose_'
'kýrslu'
'kær'
'kvilla_'
'kt_'
'kraft'
'kostnaðar'
'kjöti'
'kjö'
'kids_'
'kennin'
'kenna_'
'kallað'
'jöl'
'jið_'
'j_'
'iði'
'ix'
'isins_'
'investigati'
'inve'
'inu'
'intra'
'interfere'
'innflutning_'
'inland_'
'ingi'
'individually_'
'impa'
'immune_'
'ilm'
'ika'
'ification_'
'identi'
'ib_'
'hús_'
'höfð'
'hækka'
'hypertension_'
'hy_'
'hrö'
'hreyfing'
'hr_'
'hood_'
'hon'
'holds_'
'hlið'
'hjálp_'
'hitta_'
'hine_'
'hindran'
'herbergi'
'hemlar_'
'heiti'
'heima'
'heildars'
'hau'
'hags'
'hafnar'
'hafna'
'gögnin_'
'gö'
'gólf'
'gát'
'grunur_'
'grel'
'governing_'
'govern'
'god'
'glýkó'
'gjö'
'ginn_'
'gilt'
'gift'
'gerð'
'gerningu'
'gerist_'
'gei'
'gangi_'
'ganga'
'gang_'
'gagnagrunn'
'fósturvís'
'fæðu'
'færslu_'
'fyrr'
'fyrirtæk'
'funda'
'fti'
'fræðilegu'
'frænd'
'framtíðar'
'framleng'
'framleiðsla_'
'framleiðendur_'
'framleið'
'framleidd'
'framkvæmt_'
'framkvæmdar'
'framhald'
'fort'
'fló'
'fly'
'flugverndar'
'flugl'
'flokk_'
'fjárfestinga'
'fjár_'
'fitu_'
'fish'
'file_'
'fibre'
'fermentation_'
'ferlið_'
'fenýl'
'feng'
'felld'
'fei'
'fatal_'
'falið_'
'fald'
'eyt'
'eyk'
'expiry_'
'excess_'
'even'
'ett'
'etning_'
'erfðabreytt'
'equa'
'endurnýt'
'ement'
'elska_'
'elimination_'
'eituráhrif'
'eiturverk'
'eininga_'
'einhverjar_'
'eftirvagn'
'ediat'
'easily_'
'draft_'
'dossier_'
'display'
'difficulty_'
'die'
'diagnos'
'desi'
'deild'
'deal'
'ddi'
'dat'
'cyst'
'cy'
'court'
'convert'
'continu'
'consisting_'
'connect'
'complies_'
'clarity'
'claims_'
'cks_'
'cinat'
'chain_'
'cate'
'carrier_'
'cad'
'búa_'
'byrja_'
'byggi'
'buildings_'
'building_'
'brýn'
'bræð'
'breytileg'
'break_'
'bran'
'borgar'
'blóðsý'
'blu'
'birting'
'bila'
'beyond_'
'beta'
'bendi'
'bein_'
'behind_'
'beginning_'
'banka'
'baks'
'aðgengilegar_'
'aðferðinni_'
'avo'
'ave'
'av'
'auðv'
'aukning_'
'aspar'
'ash'
'arð'
'arn'
'arkað'
'ark'
'anyone_'
'anlega'
'altæk'
'als'
'almenning'
'airworthiness_'
'aff'
'add'
'adapt'
'acy_'
'accident_'
'abacavír'
'aba'
'Z_'
'YS'
'Will'
'White_'
'Vol'
'Veit'
'Value_'
'Ur'
'UP'
'Tíðni_'
'Tre'
'Time'
'Tilkynn'
'TY'
'TION_'
'Sö'
'Sé_'
'Sla'
'Sign'
'SH'
'Ró'
'Rit'
'RA_'
'QT_'
'Provi'
'Pos'
'Pan'
'Pakkningar_'
'PC'
'Os'
'NCI'
'NA_'
'Mu'
'Mer'
'Men'
'Manufacture'
'Make_'
'MET'
'Live'
'Like_'
'Len'
'Leið'
'Leg'
'Lact'
'LAND'
'Kan'
'KK'
'KI_'
'Inc'
'IA_'
'Hvers_'
'Hun'
'Heimilt_'
'Geymið_'
'GH'
'Fylg'
'Frá_'
'Franc'
'Fat'
'Fall'
'FER'
'Enn_'
'Engl'
'Eigi'
'EU'
'EN'
'EI'
'Disp'
'Dia'
'Detail'
'Def'
'DS'
'Cat'
'BO'
'B1'
'Art'
'AST'
'AIF_'
'AIFM_'
'AB'
'? '
'50'
'.)  _'
' .'
' %'
'þágu_'
'þvo'
'þv'
'þurfum_'
'þró'
'þrot'
'þangað_'
'ýti'
'ýking'
'úðu'
'útli'
'úthlutun'
'útdr'
'úf'
'öryggism'
'öryggisk'
'öllu'
'ö_'
'ótta'
'ósín'
'óskað_'
'ónazól'
'ólgu'
'óge'
'ód'
'ðsl'
'ðl'
'ðk'
'ðja_'
'íta_'
'íhluti'
'élagi'
'éla'
'ætlunin'
'æra'
'æfing'
'æf'
'áða'
'áætl'
'áva'
'át_'
'ástæðu_'
'ástæð'
'ási'
'árangurs'
'ákvarðað'
'Þýskaland'
'Ör'
'Áætl'
'ypt'
'yp'
'yo'
'ynda'
'xan'
'wood_'
'water'
'wants_'
'vöxtu'
'völ'
'víti'
'vísbendingar_'
'væði_'
'viðs'
'viti'
'viss'
'visible_'
'virkr'
'vira'
'vini'
'vin_'
'vid'
'veru'
'versna'
'verkja'
'vely_'
'veitingu_'
'varðveit'
'valdi_'
'uro'
'upphafleg'
'upphaf_'
'uppfærð'
'uno'
'unn'
'unl'
'undirgreinar_'
'unde'
'undanskil'
'undanf'
'umh'
'ults_'
'tóku_'
'tíð_'
'tík'
'tæknileg'
'turn_'
'tungumál'
'tryggð'
'trust'
'trim'
'tric'
'treyst'
'trat'
'transplant'
'transferred_'
'tract'
'tori'
'toi'
'tjórn'
'title_'
'tilvísun_'
'tiltekin'
'tilskipunin'
'tilskipan'
'tilskil'
'tilheyra'
'tilbúi'
'temporary_'
'telecommunications_'
'tegundum_'
'tef'
'tain_'
'tain'
'sýnin'
'sýkt'
'sótt_'
'sólar'
'sátt'
'syf'
'svik'
'substrate'
'substantial_'
'sub_'
'stöðvum_'
'stöðum_'
'stöðugt_'
'stærð'
'stuðnings'
'stríð'
'stry_'
'stol'
'stock_'
'stl'
'stjórna_'
'still'
'stigum_'
'steril'
'sten'
'stelp'
'staðinn_'
'staðfesting'
'stations_'
'standa'
'spurningar_'
'spin'
'sons_'
'sm_'
'slö'
'slátt'
'slysni_'
'skyndi'
'skráð'
'skoðu'
'skilja_'
'skatta'
'sites_'
'sions_'
'senda'
'send'
'seinn'
'seat_'
'sealed_'
'seal'
'sd'
'scan'
'satisfie'
'samþykkta'
'samskipti_'
'samningsins_'
'sami'
'saman'
'róm'
'ræs'
'ræktunar'
'ráðstafanirnar_'
'ráðlagt_'
'running_'
'runa'
'rtu'
'rsk'
'rrh'
'roð'
'roni'
'rly_'
'rleg'
'ritu'
'rip'
'ride_'
'rib'
'reyt'
'reynst_'
'repealed_'
'renewable_'
'reme'
'relate_'
'rekstraraðil'
'rekja_'
'reikninga'
'references_'
'rece'
'rative_'
'rated_'
'rapid_'
'rannsóknars'
'radi'
'quanti'
'pýr'
'pín'
'pump'
'próp'
'prófana_'
'prost'
'producer_'
'produc'
'pretty_'
'pres'
'prent'
'precis'
'potentially_'
'portion_'
'pop'
'pollutant'
'plötu'
'plus_'
'ple_'
'plat'
'pig'
'penta'
'peni'
'patch_'
'parent'
'paraff'
'pali'
'pack'
'orðin_'
'orsaka'
'oro'
'origina'
'organization'
'order'
'orat'
'options_'
'option_'
'opi'
'ope'
'op_'
'onse'
'ogi'
'ofsa'
'offic'
'offer_'
'oedema_'
'od_'
'occ'
'obst'
'nýr'
'nær'
'nægja'
'náttúruleg'
'náttúr'
'notifi'
'nm'
'nleg_'
'njóta_'
'nia'
'ngin_'
'neyti'
'ney'
'nev'
'nel_'
'nein_'
'nei'
'ndin'
'natríumklóríð'
'nation'
'nas'
'nag'
'mætt'
'mælin'
'mátt'
'mánuðir_'
'mán'
'málsgreinar_'
'málast'
'must'
'mpi'
'mov'
'mother'
'morgun_'
'moment_'
'miðst'
'miðlæg'
'mikilvæg_'
'mikill_'
'micrograms_'
'meðf'
'meðaltali_'
'metre'
'metr'
'metabolites_'
'mestu_'
'message'
'mennt'
'meng'
'meinvörp'
'mb_'
'mats_'
'master_'
'marktæk'
'markmiðum_'
'markaðsset'
'manu'
'lögaðila_'
'líkj'
'lífvera_'
'líf_'
'lækna'
'lánshæfismats'
'lánastofn'
'lykj'
'lyfjapenna'
'lve'
'luti'
'lum'
'losses_'
'logic_'
'loftt'
'loftr'
'loc'
'lm'
'll'
'ljósker'
'litið_'
'list'
'lingu'
'linga'
'liggur_'
'lib'
'lfr'
'leys'
'letter_'
'less'
'leit_'
'leit'
'ld_'
'lausa'
'landsbundin'
'lac'
'labelled_'
'kög'
'kviðverk'
'kref'
'kort_'
'korn'
'kno'
'kli'
'kkar'
'kk_'
'kipti_'
'kid'
'kenni'
'kend'
'kaupa_'
'kasta'
'karb'
'kalla'
'kW_'
'jör'
'jál'
'just'
'jun_'
'jan_'
'jafnt_'
'ito'
'itin'
'isn_'
'ising_'
'ise_'
'ional_'
'involvement_'
'intestin'
'interrupt'
'interm'
'intensi'
'insta'
'inject_'
'init'
'infants_'
'ined_'
'individuals_'
'indirect_'
'indications_'
'indicat'
'inde'
'improvements_'
'imag'
'ilin'
'ileg'
'ild'
'ics_'
'ibi'
'höndum_'
'höf'
'hóps_'
'hóp_'
'hægð'
'hægri_'
'hás'
'hámark'
'hyl'
'hvíl'
'hundum_'
'hugmynd_'
'hræ'
'hreyfa'
'hlutverki_'
'hlut_'
'hlo'
'hlið_'
'hleyp'
'hjólbarða'
'hjálparefn'
'hes_'
'hereinafter_'
'hendur_'
'heimaaðildarríki'
'heilkenni_'
'heart'
'headache_'
'head'
'haus'
'happy_'
'ham'
'góðu'
'gð'
'gæðum_'
'gue'
'guard'
'gri'
'greinin'
'greinilega_'
'grei'
'grand'
'gleri_'
'gler_'
'gjafar_'
'gives_'
'gild'
'gerninga_'
'geo'
'gegn'
'gað'
'gastr'
'fólks_'
'félagi_'
'færri_'
'færa'
'fyrirmæli_'
'fung'
'fullnægja_'
'fulfill'
'frjó'
'friend_'
'forsendu'
'former_'
'format_'
'foreign_'
'foods_'
'flun'
'flokka'
'fli'
'fjölskyldu'
'fjársk'
'fjárm'
'fjar'
'fjallað_'
'fjalla'
'fiski'
'finnur_'
'fina'
'figure_'
'ff'
'fet'
'ferlinu_'
'fentan'
'farin'
'fals'
'fall'
'express'
'exe'
'etning'
'etal_'
'erí'
'eruð_'
'erni'
'erm'
'erist'
'ept'
'enter'
'ennt'
'engi'
'enga_'
'endurspegla'
'endurskoðun_'
'endurskoð'
'endurheimta'
'endurg'
'elin'
'elevat'
'eiti_'
'einkenni'
'einkenna_'
'einkal'
'eininga'
'einhver'
'eim'
'eignarh'
'eigna'
'eggja'
'egg_'
'eftirtal'
'ected_'
'eci'
'easy_'
'dýri'
'dótturf'
'dæmi_'
'dval'
'dura'
'dráttar'
'drugs_'
'drey'
'dreifa_'
'drawing_'
'drau'
'dor'
'dopa'
'disti'
'dispe'
'disoproxil_'
'discuss'
'diluted_'
'difficulties_'
'deyf'
'dev'
'designation_'
'den_'
'delivery_'
'dehyd'
'definitions_'
'defect'
'ddu_'
'dda'
'dauða_'
'database_'
'dagar_'
'dB_'
'cí'
'currency_'
'cult'
'cture'
'cts_'
'cry'
'crew_'
'counter'
'couldn_'
'coordination_'
'contribution_'
'contractual_'
'cont'
'const'
'consisten'
'considera'
'connection_'
'connected_'
'compu'
'compre'
'completion_'
'compartment_'
'communicated_'
'committee_'
'colla'
'coh'
'closely_'
'clos'
'cisi'
'cis'
'cide'
'choice_'
'chest_'
'chair'
'cert'
'catalytic_'
'cat'
'carton_'
'bóta_'
'bók_'
'bíð'
'byggt_'
'bus'
'burðar'
'breytu'
'breið'
'blöndu'
'blóðþrýsting'
'blóð_'
'blæðinga'
'blue_'
'blocke'
'blett'
'bless'
'birt_'
'birgi'
'berk'
'basi'
'bann_'
'ball'
'b'
'aðflug'
'aðferða_'
'azol'
'aust'
'aul'
'auknu'
'atvinnus'
'athugun_'
'asó'
'astma'
'associat'
'assist'
'asked_'
'arða'
'ará'
'arver'
'arthritis_'
'aro'
'arms_'
'arle'
'arise'
'ard'
'arbúnað'
'appoint'
'appliances_'
'antibodies_'
'anae'
'amin'
'alþjóða'
'alla'
'alkóhól'
'aki'
'agna'
'acquire'
'acetate_'
'accumulat'
'accepted_'
'[ ]'
'Za'
'Week_'
'WI'
'Vir'
'Vatns'
'VER'
'Tol'
'Tilgreina_'
'Thanks_'
'TRA'
'TO'
'Sérst'
'Svar'
'Ste'
'Slík'
'Sj'
'Service'
'Schengen_'
'Sag'
'SD'
'Rei'
'Reg'
'RS'
'Ps'
'Ná'
'NI_'
'NAR'
'Mó'
'Mab'
'MR'
'MI_'
'Listen_'
'Lan'
'Komið_'
'Kingdom_'
'Jan'
'ION_'
'INN'
'IC_'
'ICE'
'ICAO_'
'IA'
'Hámarks'
'Hz_'
'Hydro'
'Hvít'
'Hlut'
'Heim'
'Hall'
'Gildi'
'Germany_'
'Gas'
'Gar'
'GAN'
'Fó'
'Fyrirgefðu_'
'Flugöryggisstofnun'
'FN'
'Evrópusambandi'
'Eru'
'Eli'
'Eitt_'
'Einn_'
'Efni'
'EIN'
'E1'
'Disc'
'Description_'
'Del'
'Dad_'
'Chemical_'
'Che'
'Cert'
'Case'
'Can'
'Calc'
'CYP3A_'
'CY'
'CC'
'CA_'
'CAT'
'Ból'
'Bur'
'Bud'
'Br'
'Ble'
'Belg'
'Based_'
'Bara_'
'Bac'
'BSE_'
'Atri'
'Anna'
'Actavis_'
'Abra'
'ATC'
'AIF'
'AA'
'; (_'
'86'
'76'
'75'
'548_'
'52'
'47'
'27'
'1997_'
'1996_'
'101_'
'06_'
'03_'
'...'
'."_'
'-  _'
'-(_'
','
').(_'
'! - _'
' ... _'
'“) _'
'“_'
'þýðingu_'
'þý'
'þáttt'
'þátt'
'þynnt'
'þykkn'
'þver'
'þrúgumust'
'þrö'
'þreyta_'
'þoli'
'ýð'
'ýmis'
'úttekt_'
'úti_'
'útgef'
'úmab'
'úg'
'öldu'
'ökurita'
'ögule'
'ö'
'ótí'
'ópa'
'óní'
'ónu'
'ónot'
'ðun_'
'ítr'
'íta'
'íma'
'íh'
'æðis'
'ætla'
'ætis'
'ædd'
'ávaxta'
'áttar_'
'áskrif'
'árs_'
'ályktun_'
'ákveðinn'
'áhættun'
'áhyggjur_'
'áhrif'
'ábe'
'Þér_'
'Þannig_'
'ÖR'
'ÐA'
'Ís'
'ÆK'
'Ákvörðun_'
'zz'
'zole_'
'zing_'
'zin'
'zi_'
'zen'
'z'
'ytt'
'yri'
'yne'
'yggi'
'yfja'
'yfirst'
'yde'
'xia'
'wr'
'wl'
'wind'
'were'
'weekly_'
'wai'
'vökvas'
'vélknúin'
'vænt'
'vottun_'
'vog'
'viðurkennda'
'viðbragð'
'vitn'
'vine_'
'vexti'
'verðið_'
'version_'
'versi'
'verklagsreglur_'
'verify_'
'veið'
'veiti_'
'vatnaleiðum_'
'varst_'
'varnir_'
'varlega_'
'validation_'
'valds'
'utili'
'uste'
'urb'
'upt'
'ups'
'uppsetningu_'
'upplýsingaskipt'
'unnar_'
'unknown_'
'unit'
'undin'
'undantekning'
'uncon'
'unav'
'unars'
'umsókna'
'umrædd'
'umhverfisv'
'umhverfis_'
'uld'
'ulation'
'ul_'
'ui'
'ugh'
'ufu'
'ude_'
'ude'
'uction_'
'ubl'
'töldum_'
'töflu'
'tóm'
'tít'
'tæknilegr'
'tækja_'
'twe'
'tuð'
'tumours_'
'tted_'
'trúnaðar'
'tryggingar_'
'trouble_'
'trea'
'trailer'
'toxi'
'tiv'
'tip_'
'tilnefna_'
'tillits_'
'tilkynnta'
'tilkynning'
'tilhögun_'
'tilgreindur_'
'tilboð_'
'tilb'
'tick'
'tic'
'though_'
'thiaz'
'terminat'
'tepp'
'tengsl'
'telja_'
'television_'
'tee'
'tari'
'tafa'
'taf'
'sýnd'
'sótt'
'sæti_'
'switch'
'sweet_'
'svína'
'svæðið_'
'svið'
'svara'
'svar_'
'svar'
'surfac'
'suppressi'
'suggest'
'subst'
'störf_'
'stutt'
'stru'
'straum'
'straight_'
'stocks_'
'staði_'
'staðbundin'
'staðbund'
'statement_'
'stat_'
'starfsstöð'
'starfsm'
'starfsfólk_'
'stand'
'stafræn'
'stafi'
'sre'
'spl'
'spend'
'spectr'
'specification_'
'spaces_'
'some'
'software_'
'sofosbuvir_'
'sod'
'slur'
'sleep'
'slaughter_'
'skít'
'skí'
'skulu'
'skoða'
'skot'
'skorts'
'skj'
'skila'
'skemmdum_'
'skaðleg_'
'sjónar'
'sjálf_'
'sjaldgæfar_'
'siti'
'sic'
'shu'
'shows_'
'shoot_'
'shift'
'shi'
'sfa'
'setningu_'
'sendir_'
'sell_'
'seink'
'segarek'
'sefn'
'secure_'
'secur'
'score_'
'sco'
'sbr_'
'satisfactory_'
'sanna'
'samþykkt'
'samstæðu'
'samræmist_'
'samræmis_'
'samningur_'
'samhæfða'
'sameiginlegr'
'samanburði_'
'safnað_'
'róleg'
'ról'
'rðar'
'rð'
'ríkinu_'
'ræktar'
'rygginga'
'rub'
'rota'
'role_'
'rku'
'rka'
'rja'
'rins_'
'revers'
'resulted_'
'respond'
'res_'
'replace_'
'repeat'
'rennur_'
'renn'
'removal_'
'remi'
'released_'
'relax'
'reikningsskil_'
'reglubundi'
'reglna_'
'regions_'
'region_'
'regime'
'recover'
'reconstitution_'
'receiv'
'receipt_'
'reading_'
'rat_'
'ral_'
'raforku'
'rafmagns'
'rad'
'quot'
'qualification_'
'pus'
'purchase_'
'pull_'
'psi'
'prófi_'
'proto'
'promote_'
'prolonged_'
'prohibited_'
'progression_'
'professionals_'
'producers_'
'procurement_'
'priate_'
'preserve'
'present'
'pren'
'premises_'
'prec'
'pou'
'plan'
'places_'
'physician_'
'pet'
'pesticide'
'pes'
'perfor'
'pension'
'participation_'
'pari'
'pace_'
'oxid'
'owne'
'ough'
'oto'
'orts_'
'originating_'
'orb'
'opna_'
'opinberra'
'ony'
'ong'
'onavir'
'onally_'
'ofskömmtun_'
'ofna'
'odd'
'occupation'
'nýrnabilun_'
'nýjar_'
'nö'
'nóg_'
'næmi_'
'ná'
'ntun'
'ntly_'
'notanda'
'nning'
'nle'
'nist'
'nets'
'nera'
'nefnd'
'near_'
'nea'
'nde'
'nautgrip'
'narst'
'nal_'
'mörkin_'
'mörgum_'
'mínir_'
'mælir_'
'mælinga'
'málsskjöl'
'myndunar_'
'mutual_'
'muta'
'mpe'
'morð'
'molecul'
'mjó'
'miðlun_'
'miðla_'
'mist'
'missed_'
'minni'
'milljónir_'
'mgr'
'meðhöndluð'
'meðalstór'
'metri'
'metasta'
'metal'
'merc'
'mell'
'mei'
'mechanism_'
'mbi'
'matters_'
'marketed_'
'managed_'
'mam'
'maintaining_'
'mab'
'lögle'
'lögboð'
'lítill'
'líki'
'lík_'
'læt'
'læs'
'lágu'
'lyst'
'lungu'
'lue'
'losunar_'
'lost_'
'long'
'litu'
'lised_'
'lind'
'leyft_'
'lett'
'lend'
'leikf'
'leiddi_'
'legi_'
'leak'
'lausu'
'lausnin_'
'launþega_'
'lap'
'langa'
'lamivúdín'
'ký'
'kóð'
'kyrr'
'kyl'
'kvörðun'
'kveikj'
'komn'
'kne'
'klú'
'klíníska_'
'klæð'
'kj'
'kit'
'kilo'
'ker_'
'kass'
'júkdóm_'
'jót'
'jun'
'jarðg'
'jafngildi_'
'iðn'
'iðin'
'itut'
'ital'
'ison'
'isolate'
'irrespective_'
'ire'
'intend'
'integrated_'
'intake_'
'inst'
'inndælingar_'
'inhale'
'infringement'
'inflammatory_'
'ime'
'ils'
'ight_'
'ice'
'höfðin'
'höfuðs'
'hö'
'hópur'
'héðan_'
'hygg'
'hyg'
'hverr'
'hvat'
'hv'
'hundraðshlut'
'huh_'
'hugs'
'hrædd'
'hrá'
'hrin'
'hreyfils'
'household_'
'hos'
'hormón'
'holl'
'holders_'
'hlífðar'
'hlé_'
'hlutlæg'
'hlutfallsleg'
'hlutfall'
'hlutan'
'hliði'
'hleðslu_'
'hjálpar_'
'hit'
'hire'
'hinn'
'hing_'
'hid'
'heilu'
'heating_'
'haust'
'harmonized_'
'hagsmuni_'
'hagsmun'
'hafs'
'gó'
'grunnkröfu'
'grundv'
'gru'
'grapes_'
'graf'
'government_'
'good'
'glúk'
'gleð'
'gleyp'
'gleymist_'
'gir_'
'gir'
'gge'
'gers'
'gem'
'gel'
'gast_'
'gang'
'förum_'
'fór'
'félag'
'fái'
'fyrirb'
'fylgt_'
'fy_'
'fundi'
'fullt_'
'fullorð'
'fuels_'
'fræðileg_'
'fræi_'
'fráb'
'fresta'
'frest_'
'framleiðsluv'
'framleiðand'
'framkvæmd'
'framb'
'fosfór'
'forv'
'forgangs'
'forg'
'flutningu'
'flutning_'
'flut'
'flugvélar'
'flugvallar_'
'flow'
'flet'
'fjum_'
'fields_'
'fibro'
'fibri'
'feedingstuffs_'
'fatigue_'
'faste'
'fastan'
'farms_'
'fallið_'
'eyri'
'eyp'
'extr'
'exte'
'export'
'expla'
'exper'
'existence_'
'exclusi'
'exceed'
'examined_'
'examin'
'exac'
'ex_'
'evrópsku'
'evrópska_'
'evrópsk'
'evaluate_'
'eur_'
'ett_'
'eto'
'estimate_'
'eso'
'erythro'
'erv'
'erlend'
'erk'
'ergo'
'eren'
'enni_'
'ening_'
'engu_'
'endurtekn'
'endurteki'
'endurnýja'
'ende'
'ence'
'elv'
'els_'
'elli_'
'elli'
'eli'
'einstaklings_'
'einstaklingar_'
'einl'
'einingum_'
'einangr'
'eigum_'
'eigin'
'eftirlitsyfirvöld'
'efndar'
'efnahagsnefndar_'
'efa'
'díoxín'
'dæmigerð'
'dæl'
'drykkj'
'drif'
'dri'
'dren'
'draw'
'drag'
'down'
'domestic_'
'docu'
'divided_'
'distort'
'disp'
'dish'
'dioxin'
'dinn_'
'difficult_'
'dies_'
'died_'
'dge'
'dex'
'designat'
'depress'
'depl'
'delegated_'
'del'
'deilu'
'defe'
'ddy_'
'daz'
'dap'
'damn_'
'cyt'
'customer_'
'culture_'
'ctiv'
'crops_'
'critical_'
'crea'
'crazy_'
'cover'
'count'
'cot'
'contribut'
'contraception_'
'container_'
'constructed_'
'consists_'
'concerns_'
'concept'
'composition_'
'compo'
'compli'
'compari'
'colo'
'collective_'
'cock'
'clean'
'cle'
'classified_'
'civil'
'circulation_'
'cia'
'chemi'
'chas'
'cast_'
'cardia'
'carc'
'cancel'
'cab'
'bús'
'búni'
'búinn_'
'bö'
'bót'
'bær_'
'bæl'
'bálk'
'byrju'
'byrjar_'
'byggð_'
'byggjast_'
'byggist_'
'button_'
'burð'
'burden'
'bundna'
'bry'
'brjóta'
'brjóstagjöf_'
'brin'
'brain_'
'boða_'
'box_'
'bovine_'
'botn'
'borða'
'blöð'
'blóðþrýstingi_'
'blóðr'
'blóðm'
'blóðkorn'
'block'
'bjarga_'
'birth'
'birtar_'
'bine_'
'bet'
'bd'
'bavirin'
'barns'
'baka_'
'aðskil'
'aðlögun_'
'aðild_'
'aðgengi_'
'aðgangur_'
'aðf'
'avoided_'
'aver'
'authori'
'aut'
'aukaverkan'
'auction'
'ates_'
'asthma_'
'assurance_'
'arra'
'arkaða'
'arins_'
'arily_'
'appear'
'answer_'
'anhydrous_'
'amer'
'ambrisentan'
'alþjóðlega'
'along_'
'almennr'
'almenningi_'
'airs'
'air'
'ail_'
'agu'
'agin'
'agency_'
'afo'
'afleiðu'
'afbrigð'
'aero'
'adequately_'
'acle'
'ack'
'accessible_'
'accept'
'abr'
'abnormal_'
'abatacept'
'abacavir_'
'Zo'
'Zi'
'YN'
'XIII_'
'Was'
'Wait_'
'Viðmiðunar'
'Vill'
'Verð'
'Upplýsinga'
'Ums'
'UN_'
'UB'
'Tækni'
'The'
'Ter'
'Tab'
'TM'
'Só'
'Spr'
'Sorry_'
'Skj'
'Sett'
'Seg'
'Sch'
'SOL'
'SK_'
'Ræ'
'Report'
'Regula'
'Registr'
'Rannsóknir_'
'RC'
'Prófun'
'Protocol_'
'Programme_'
'Pri'
'Plasma'
'Pho'
'Pharmaco'
'Peter'
'Pers'
'Par'
'Pabbi_'
'PCD'
'Once_'
'OB'
'Niður'
'Neu'
'Nat'
'NR'
'Mál'
'Mai'
'MU'
'MED'
'Lát'
'Lið'
'List_'
'Les'
'Lam'
'LEN'
'Kó'
'Kat'
'KI'
'IÐ'
'Innih'
'Imp'
'INC'
'IFR'
'Hyp'
'Hj'
'HER'
'Gö'
'Grun'
'Got'
'Gera_'
'George_'
'Fle'
'Fjárfestingar'
'Fjár'
'Farið_'
'FE'
'Europe_'
'Eink'
'Eftirlit'
'Effect'
'Drottins_'
'Dea'
'Dav'
'DNA_'
'Control_'
'Contra'
'Conc'
'Co_'
'Cho'
'Card'
'CS'
'CI'
'Barr'
'BRI'
'BAT_'
'Aust'
'Audit'
'Alm'
'Administration_'
'AV'
'AUC'
'APP'
'ALT'
'ALI'
'89'
'88'
'59_'
'450'
'.)'
'-/_'
'),'
'%), _'
' -'
'“:'
'þættin'
'þynnupakkningu'
'þyk'
'þungu'
'þrýstings'
'þrýstingi_'
'þrýsting'
'þróa_'
'þjónustust'
'þjálfunar'
'þi'
'þekkta'
'þekkt'
'ýli'
'útliti_'
'útibú'
'úti'
'útg'
'úrtak'
'úlfa'
'úi'
'öst'
'öryggisv'
'öngum_'
'öng_'
'ökutæk'
'öfu'
'óþægind'
'óí'
'óviss'
'óli'
'óhæ'
'ógl'
'ófullnægjandi_'
'ðv'
'ðunum_'
'ðst'
'ðslu'
'ðna'
'ðin'
'íðefni_'
'ína_'
'íma_'
'íkj'
'ídó'
'étti'
'ættkvísl'
'ætlað'
'æta_'
'æsi'
'áve'
'áttur_'
'áritun'
'ánæg'
'ákvörðunar'
'áfe'
'Þyn'
'Þv'
'Öryggis'
'ÐU'
'Ást'
'±'
'~_'
'yður_'
'yx_'
'yvi'
'yrði'
'yrki_'
'yours'
'yngd'
'yndi'
'yli'
'worked_'
'withdrawn_'
'window_'
'wait_'
'vöruna_'
'víð'
'vísun'
'vísu'
'víst_'
'vísi_'
'víni'
'vægi_'
'von_'
'von'
'viðvar'
'viðurkennt_'
'viðurkenni'
'viðmiðunum_'
'viðmiðunarreglu'
'viði'
'viðh'
'viðar'
'visit_'
'virðis'
'virkum_'
'virkja'
'virkar_'
'vinstri_'
'vi_'
'ves'
'veruleg'
'versus_'
'verkefna_'
'vegin'
'vega_'
'vefsetri'
'vaxta'
'vati'
'varan'
'vansk'
'vandamál'
'vaccines_'
'utning'
'ust'
'url'
'urgen'
'urea_'
'upph'
'uppgjör'
'uppboð'
'ungbörn'
'undanþágur_'
'unb'
'umferðar'
'umfang_'
'umbúðir'
'umbrotsefni_'
'umbreyt'
'ulag'
'uga_'
'udin'
'ud_'
'túlkun_'
'töl'
'töflun'
'tímabundn'
'tæknilegum_'
'typ'
'tvöfald'
'tv'
'ture'
'tunnel'
'tub'
'tting_'
'tré'
'tryggingu_'
'tryggi'
'trufla'
'trip'
'travel_'
'traust'
'transparent_'
'trading_'
'tractor_'
'toð'
'towe'
'toni'
'tomorrow_'
'tle'
'tla'
'tilt'
'tillög'
'threshold'
'thl'
'text'
'tes'
'tens'
'tengt_'
'tengdum_'
'tei'
'teg'
'taxe'
'tax'
'taste_'
'tanks_'
'tale'
'taks'
'takmarkað'
'takk'
'tach'
'sýru_'
'sýnum_'
'sýkingum_'
'sýki'
'súr'
'sönn'
'söfnun_'
'sófosbúvír'
'sérstakrar_'
'sérhæfð'
'sérh'
'sæta_'
'sæt'
'sæfiefni'
'syst'
'sy_'
'swe'
'sw'
'svo'
'svarið_'
'surr'
'supplementary_'
'sund'
'sulph'
'suit'
'stöðva'
'stöður'
'stökk'
'stól'
'styrkleika_'
'stykk'
'sts_'
'structures_'
'stro'
'stori'
'ston'
'sters_'
'stera'
'statutory_'
'static_'
'starfsstöðvar'
'starfar_'
'stages_'
'ssa_'
'sprautunn'
'sprauta'
'spirit'
'som'
'solely_'
'sold_'
'snúnings'
'snemm'
'smu'
'smita'
'smi'
'slökkvi'
'slátr'
'slit'
'sli_'
'slan'
'skýrt_'
'skýrslunn'
'skyldu_'
'skuldb'
'skuldabréf'
'skrif'
'skol'
'skjölum_'
'skipuleg'
'skipulag_'
'skipti'
'skipgengum_'
'skipa_'
'skilyrða_'
'skilyrð'
'skar'
'skammtinum_'
'sjúklingu'
'sjúklingi'
'sjúkling'
'sjóðsins_'
'sjónvarps'
'sist'
'signal_'
'sigl'
'shr'
'seven'
'seld'
'sef'
'seeds_'
'seconds_'
'scre'
'scien'
'school_'
'sannprófun_'
'samþykki'
'samvi'
'samstæðu_'
'samsetning'
'samningurinn_'
'samningsstofn'
'sameiginlegum_'
'sambandi_'
'salt_'
'sagðir'
'rúmmál'
'rökstudd'
'rða'
'ríð'
'ríkiss'
'réttind'
'ræk'
'ráðlögð_'
'ráðg'
'rugl'
'rri'
'rra'
'routine'
'rotvar'
'ron_'
'rn_'
'rli'
'rki'
'rk_'
'rjó'
'rit_'
'rhe'
'rgi'
'rge'
'restrict'
'responsibilities_'
'responde'
'respiratory_'
'respective_'
'resolution_'
'residence_'
'requiring_'
'reproductive_'
'reo'
'rekstraraðila'
'reiki'
'regu'
'reglu'
'register_'
'refer'
'recycl'
'recr'
'recom'
'reach'
'rci'
'rce'
'raut'
'ratiopharm_'
'random'
'rain'
'rafa'
'rab'
'qualit'
'pure_'
'pum_'
'pters_'
'prófunaraðferði'
'prófunaraðferð_'
'prófað'
'proportion_'
'profi'
'preservati'
'prepar'
'practi'
'positions_'
'polyp'
'poi'
'plástur'
'plasti'
'plasm'
'pitat'
'pis'
'pill'
'petroleum_'
'persist'
'perc'
'pep'
'penn'
'past'
'particulate_'
'particula'
'participants_'
'oxíð_'
'ov'
'otecan_'
'ost_'
'orðsending'
'orp'
'opinberum_'
'opinber_'
'operat'
'open'
'oon'
'oni_'
'omyc'
'omide_'
'olu'
'ofta'
'ofs'
'ofnun'
'off'
'ode'
'oct'
'oat'
'nýrr'
'nýl'
'næg'
'nálarh'
'nálar'
'nákvæma'
'nutrition'
'nur'
'ntan'
'notes_'
'notenda_'
'notend'
'niðurstöðu'
'niðurgangur_'
'nitrogen_'
'ningu'
'nh'
'ngur'
'ngunum_'
'ngj'
'neytendur_'
'neo'
'neinar_'
'neig'
'nefndi'
'nect'
'nec'
'ndar'
'naður_'
'nast'
'nartím'
'narkerfi'
'nafni'
'mótteki'
'mótaðil'
'míð_'
'mæld'
'málsmeðferð'
'málin'
'mu_'
'movements_'
'mount'
'mot'
'morgun'
'monohydrate_'
'mone'
'model'
'mobile_'
'mj'
'miðil'
'mix'
'miti'
'misst'
'mismun'
'minute_'
'minnku'
'minnkað'
'millist'
'millilið'
'mikilvæga'
'meðferði'
'meðferðarl'
'metformín'
'metabolised_'
'membrane'
'megin_'
'meg'
'mechanisms_'
'maðurinn_'
'matr'
'married_'
'markmið'
'marki'
'markaður'
'markaðsleyfi'
'markaðin'
'markaðarins_'
'marine_'
'mari'
'margf'
'mannvirk'
'main'
'magni'
'maga_'
'lýsing'
'lögun'
'lóð'
'lór'
'líti'
'líkamanum_'
'læti'
'lækka'
'látt'
'lykt'
'lyft'
'lusi'
'lung_'
'losunarheimild'
'lose_'
'lopinavir_'
'lon'
'logi'
'loga'
'loftrými'
'llan'
'ljúka_'
'ljósg'
'liðs'
'liðið_'
'liði_'
'limumab'
'limi'
'lifun_'
'license'
'leyfis'
'leyfi'
'lev'
'ler'
'leka_'
'leikur_'
'leika'
'leifum_'
'leaves_'
'laði'
'lant_'
'langu'
'landsbundnu'
'landinu_'
'lagar'
'kvöldi'
'kvæð'
'kvarða'
'kröf'
'krampa'
'krabbameinsvaldandi_'
'korti'
'korn_'
'knew_'
'klóríð_'
'klukkustunda_'
'klukkustund'
'kkr'
'kka'
'kjarn'
'king'
'ken'
'kaup_'
'karla'
'jöld'
'jöfnun'
'jöf_'
'jórnun_'
'janleg'
'jald'
'jaf'
'iti_'
'ite_'
'ission'
'isl'
'ise'
'ipat'
'investors_'
'investigate'
'introduce_'
'into'
'intern'
'interested_'
'insúlíni'
'insul'
'innsigl'
'innleið'
'injur'
'initiative'
'inhibition_'
'ingum_'
'infant_'
'ines_'
'indicator_'
'inda_'
'imet'
'ili_'
'ike'
'ify'
'ifor'
'iflo'
'ifi'
'ife'
'ient'
'icid'
'ible_'
'hópum_'
'hávaða_'
'háa'
'hverfi'
'hverfa'
'hur'
'hum'
'hugt'
'hugsanlegu'
'hráefn'
'hringja_'
'hreyfl'
'hreinsað'
'hratt_'
'hormone_'
'hormon'
'hope_'
'hlífar_'
'hlutu'
'hlusta'
'hjálpa_'
'hjartsl'
'hiti_'
'hitast'
'hindra_'
'hindr'
'heyrir_'
'heyri'
'heyr'
'hettuglasinu_'
'hettu'
'hesta'
'heppileg'
'hemlum_'
'helmingu'
'helg'
'heildarfjöld'
'heila_'
'hazardous_'
'harg'
'hard'
'happen'
'hami'
'haldi_'
'hai'
'hagsmuna_'
'gæðast'
'gut'
'guna'
'gróður'
'grein'
'greenhouse_'
'grain_'
'goes_'
'gnu'
'gna_'
'gluc'
'gildið_'
'gerður_'
'gerjun_'
'generating_'
'geit'
'ged_'
'gastrointestinal_'
'gangvirði_'
'gangur_'
'gan_'
'félagi'
'félaga_'
'fæð_'
'færslunn'
'fædd'
'fyrirmælum_'
'fyrirhuguð'
'fyr'
'fund'
'fun_'
'fullkomi'
'fullg'
'fugl'
'frumum_'
'frest'
'fremst'
'framv'
'framt'
'framleiðslul'
'framleiðenda_'
'framlag'
'framkvæmdarreglu'
'framfylg'
'fou'
'formleg'
'formal'
'forgot'
'foot_'
'fn_'
'flók'
'fluo'
'flugm'
'flue'
'flokkum_'
'flip'
'fjórðu'
'fjóra'
'fjármagns'
'fjáreign'
'filtrat'
'filter'
'figure'
'fight'
'fertili'
'feli'
'fee_'
'fasta'
'farþega'
'fara'
'fangi'
'famili'
'falt_'
'eðli'
'eyði'
'eyðandi_'
'experts_'
'eum'
'ets_'
'etic_'
'estab'
'ese_'
'ery'
'ernd_'
'erfið_'
'equi'
'episodes_'
'enzymes_'
'env'
'ential'
'ensures_'
'enning'
'eni_'
'engd'
'endurv'
'endurtekna_'
'endursk'
'endurnýjun_'
'endurnýjanleg'
'endurm'
'endurb'
'endpoint_'
'ending_'
'ency_'
'elskan_'
'eldur_'
'elderly_'
'eld_'
'ekst'
'eiturhrif_'
'einingarinnar_'
'einin'
'einfalda'
'einf'
'eignin'
'eigna_'
'eiginfjár'
'eiganda_'
'eg_'
'efnu'
'efnaleif'
'efnahagsleg'
'effectiveness_'
'effectively_'
'education_'
'earth'
'dýraríkinu_'
'dæmis_'
'dur'
'drykk'
'dream'
'dou'
'dni'
'dment'
'diss'
'diso'
'discontinue_'
'dimensions_'
'dihydro'
'digital_'
'diameter_'
'dey'
'dexamethasone_'
'developments_'
'describe'
'ders_'
'dera'
'dent'
'demonstrati'
'define'
'daufkyrninga'
'dau'
'dati'
'damaged_'
'dagsk'
'customers_'
'cultural_'
'cular_'
'cti'
'cros'
'controll'
'contributions_'
'contract'
'continuing_'
'cong'
'confirmed_'
'concomitantly_'
'competence_'
'comment'
'comme'
'combustion_'
'colour'
'coating'
'clot'
'claim_'
'cht'
'chill'
'cattle_'
'cast'
'cartridge'
'careful_'
'carbonate_'
'caf'
'búnaðinn_'
'bólusetningu_'
'bóluset'
'bókfær'
'byrð'
'byggingu'
'bundn'
'bun'
'bs'
'bróm'
'brá'
'brjóstamjólk_'
'bris'
'bric'
'brey'
'brennslu'
'brennd'
'breath_'
'borð'
'borist_'
'blý'
'blöðru'
'blóðra'
'blood'
'block_'
'blind_'
'blað'
'biv'
'birtingu_'
'birti'
'biological_'
'binda'
'bilu'
'bill'
'berja'
'beri_'
'belong'
'beinum_'
'bed_'
'becom'
'beat_'
'beam_'
'bba'
'barna'
'banvæn'
'bag'
'bacteria'
'aðstæðna_'
'aðstoðar'
'aðilinn_'
'aðferðirnar_'
'aðar_'
'aá'
'aware_'
'avail'
'authorization_'
'augl'
'attribute'
'attr'
'attempt'
'att'
'atriðum_'
'atrið'
'atically_'
'athugunar_'
'atad'
'assume'
'assign'
'aso'
'asa_'
'arí'
'artím'
'arti'
'arir_'
'aren'
'arefni_'
'approv'
'antibiotic'
'annsókn_'
'anns'
'anleik'
'anleg_'
'angs'
'aneous_'
'ands'
'andmæl'
'andliti_'
'anas'
'analy'
'amíð'
'amí'
'ammoni'
'alvöru_'
'allowances_'
'allocation_'
'allocat'
'alg'
'aler'
'aks'
'akl'
'agen'
'afu'
'afraid_'
'aflei'
'affecting_'
'aemic_'
'advise'
'adopt'
'adjust'
'acquired_'
'acids_'
'acidi'
'access'
'acc'
'ac'
'ZY'
'XX'
'Wel'
'Vict'
'Vertu_'
'VA_'
'Unit'
'Und'
'Turn'
'Tilkynnt_'
'Tas'
'TION'
'Sú'
'Stri'
'Str'
'Stev'
'Specific_'
'Some'
'Sodium_'
'Skýr'
'Sjúk'
'Sele'
'Samt'
'Samning'
'Sambandi'
'STR'
'Rúm'
'Rétt_'
'Right_'
'Resolution_'
'Rel'
'Reference'
'Read'
'RT_'
'REG'
'RD'
'Qu'
'Put_'
'Prófunar'
'Prio'
'Plan'
'Place'
'Peg'
'Para'
'P3'
'Or_'
'Ola'
'OPS_'
'OI'
'Non'
'Natríum'
'NOT'
'Monitor'
'Mod'
'Mil'
'Meðal'
'Mei'
'Megin'
'Mean_'
'Maður_'
'Maximum_'
'Mark'
'MRLs_'
'Lí'
'Ljós'
'Liprolog_'
'LS'
'LP'
'Kí'
'Kv'
'Kröfur_'
'Klínísk'
'Jú'
'Jud'
'John'
'Jes'
'Impr'
'Humalog_'
'Hrein'
'His_'
'Hell'
'HbA1c_'
'Hag'
'Hafi'
'Haf'
'HB'
'HA_'
'Góða'
'Greini'
'Gott_'
'Give_'
'GER'
'Fyrst'
'Fuck'
'Flu'
'Fjöl'
'Fjar'
'Fish'
'February_'
'FOR'
'FA_'
'Evrópuþingið_'
'Eve'
'Eur'
'Et'
'Electr'
'EV'
'EFTA_'
'EE'
'E5'
'Dra'
'Dose_'
'Dep'
'Cra'
'Cou'
'Compl'
'Cla'
'Chan'
'CYP1A2_'
'CV'
'CN'
'CEN'
'CAL'
'Bæt'
'Bon'
'Bandaríkj'
'Aðil'
'Aðferð_'
'Aðal'
'Að'
'Aukaverkanir_'
'Aug'
'Athug'
'Annað_'
'Animal_'
'Ang'
'Alf'
'Administ'
'Abs'
'ARR'
'ADR'
'68'
'66'
'58_'
'53'
'51'
'45'
'33'
'302'
'2016_'
'1a_'
'1A'
'1994_'
'1991_'
'1989_'
'140'
'119'
'117'
'110_'
'109'
'09'
'03'
'001_'
'...?'
'.)_'
'.""_'
'. -_'
' <_'
' :'
' /_'
' (>'
' (*)_'
'þýði_'
'þín'
'þía'
'þynna_'
'þvermál'
'þurrkað'
'þun'
'þrátt_'
'þor'
'þol'
'þjálf'
'þinni_'
'þing'
'þessir_'
'þegi'
'ýði'
'ýta_'
'ýsing'
'ýla'
'úð_'
'útvarp'
'útflutnings'
'útfl'
'útbl'
'úrón'
'úrs'
'úb'
'ú_'
'öðvar'
'öðl'
'öryggiss'
'örva_'
'örva'
'ör_'
'önn'
'öldum_'
'ökum'
'ögn'
'öflun'
'óti'
'ósí'
'óska_'
'óni'
'ólíf'
'óhr'
'ðj'
'ðingu'
'ðan_'
'íþ'
'íða_'
'ítarlega'
'íse'
'ísa'
'íns'
'ígr'
'ía'
'ætti'
'ætlu'
'ætan'
'æmi_'
'æmi'
'æm'
'áþekk'
'áð'
'ávísa'
'ávinning_'
'áttu'
'ástand'
'árei'
'áni'
'álf'
'ále'
'ákvörðuð_'
'áfyllta'
'áfanga'
'Þakka_'
'ÐA_'
'ÆÐ'
'Ætla'
'ÆT'
'Ál'
'Áfram_'
'zide_'
'zid'
'zan'
'yða'
'ym'
'ykki'
'yfirvalds'
'yfirlit'
'yfirf'
'yfirborðs'
'yfirborði_'
'xima'
'xed_'
'write_'
'wors'
'withstanding_'
'wise_'
'wire_'
'who'
'where'
'wet_'
'wast'
'washing_'
'warm'
'warfar'
'vúdín'
'vörun_'
'vörn_'
'völd_'
'víxl'
'vísbending'
'vísað_'
'vína'
'vélar'
'værir_'
'vægi'
'vopn'
'viðvörunar'
'viðurkennd_'
'viðurkennd'
'viðskiptah'
'viðmiðana'
'viðauki_'
'vity_'
'vitum_'
'vista'
'vis_'
'virki_'
'vir'
'viol'
'vio'
'viltu_'
'viljum_'
'vig'
'verðu'
'verðs'
'verðl'
'verulegu'
'vers_'
'verndaða'
'vent'
'veitinga'
'veikind'
'varúðarráðstafanir_'
'vary'
'varnarefna'
'variety_'
'varie'
'vard'
'vant'
'vandræð'
'valfrjáls'
'vale'
'vakna'
'vak'
'uðul'
'ux'
'uu'
'uter'
'ustu'
'useful_'
'urt'
'urina'
'uppk'
'uppi_'
'uppfær'
'uppfyllt'
'unnu'
'undirlið_'
'undirbúa_'
'undanþág'
'uncommon'
'unchanged_'
'umsókn'
'umhverfisá'
'umhverfiss'
'uma_'
'ulf'
'ug_'
'ues_'
'uca'
'ubi'
'túlk'
'tölur_'
'tíð'
'tækniforskrift'
'tus_'
'tungu_'
'tum'
'tuber'
'ttu_'
'ttle'
'tryggingar'
'trop'
'trie'
'trex'
'train'
'traditional'
'track_'
'tra_'
'tos'
'topp'
'tok'
'toga_'
'tli'
'tle_'
'titis_'
'tipr'
'tinu'
'tilvísanir_'
'tiltekinn_'
'tilkynninga'
'tilh'
'tical'
'throat_'
'thick'
'tera'
'tengdur_'
'tell'
'tekna_'
'tazón'
'tazone_'
'tat'
'target'
'tad'
'tacrolimus_'
'sýr'
'söfnun'
'sór'
'síður_'
'sérstakan_'
'sérfræðinga'
'sætt'
'sæti'
'sást_'
'survey'
'supporting_'
'supervis'
'sundurlið'
'sundr'
'sun_'
'sulfa'
'subscribe'
'stöðugleika_'
'stytt'
'stuðlar_'
'stungulyfsstofn'
'strin'
'strict'
'strangar'
'stor'
'stone_'
'stjórnvald'
'stjóra'
'stic_'
'sterda'
'staðg'
'statistically_'
'starf_'
'standardis'
'stam'
'stal'
'stabilis'
'ssu'
'ssing_'
'spreng'
'spj'
'speciali'
'speci'
'soli'
'sole'
'sol'
'snúa_'
'smoke'
'slíkr'
'slátrun_'
'slop'
'slembir'
'sleep_'
'skýrslugjöf_'
'skynja'
'skylt_'
'skurðaðgerð_'
'skráðu'
'skráa'
'skriflega'
'skrifa_'
'skref_'
'skipulags'
'skilvirkni_'
'skilur_'
'skilun'
'skilmála'
'skill'
'skilgreiningu_'
'skilgreiningar'
'skert_'
'skemmti'
'skammts_'
'sjúkdómum_'
'sjóði_'
'sjálfu_'
'sjái'
'sjaldan_'
'sink'
'simpl'
'shell'
'sge'
'settur_'
'setningar'
'setj'
'sendi_'
'semja_'
'semd'
'segi_'
'secret'
'sec'
'seat'
'screening_'
'screen_'
'scheduled_'
'sau'
'sannprófunar'
'sanng'
'samráðs'
'samráð_'
'samhæfð'
'samhæfi'
'samband'
'samanburð'
'salts_'
'röskun'
'rít'
'ríf'
'réttu_'
'ræði_'
'ræt'
'ráðleggingar_'
'ráðleg'
'ráðlagðan_'
'ráðgjafar'
'rtan'
'rsa'
'rrent'
'round_'
'rott'
'rot_'
'root'
'roo'
'rom'
'roli'
'rol_'
'road'
'rne'
'rna_'
'rj'
'riz'
'rio'
'rilpiv'
'ricul'
'rgan'
'rey'
'respons'
'resident'
'resc'
'represents_'
'repe'
'repair'
'rent'
'rennslis'
'remains_'
'reliable_'
'reliab'
'relevance_'
'reina'
'reglugerðin'
'reglugerð'
'regla'
'registr'
'refus'
'reflect'
'reducing_'
'reduc'
'recovered_'
'recognis'
'receptor_'
'recent_'
'rch'
'raða_'
'raun'
'ratio'
'rask'
'rannsökuð_'
'rance'
'ramma'
'rais'
'rail_'
'rage'
'rafst'
'rafrænu'
'questi'
'pö'
'push_'
'pur_'
'punkti'
'própýlen'
'prófuð_'
'prófunarst'
'prófunar_'
'prote'
'pris'
'principal_'
'priest'
'prest'
'presentation_'
'precl'
'powers_'
'pool'
'poll'
'playing_'
'platelet'
'plant'
'pir'
'piece_'
'pie'
'pic_'
'pic'
'phenyl'
'pharmacological'
'permanent_'
'perfect'
'perati'
'peninga_'
'pendi'
'pemetrexed_'
'pattern'
'pathogen'
'past_'
'pas'
'particles_'
'participate'
'partial_'
'park'
'pant'
'oða_'
'ovu'
'ovine_'
'otini'
'oth'
'ote_'
'osit'
'organs_'
'organism_'
'ordina'
'optional_'
'optical_'
'opp'
'opinbert_'
'openia_'
'onic_'
'ongoing_'
'ometer'
'oma'
'olía_'
'olv'
'ols_'
'ofnæmis'
'ofnunin'
'official'
'ofan'
'ofa'
'oes'
'oce'
'objection'
'oba'
'oad_'
'nýru_'
'nýlega_'
'nýju'
'nzapin'
'nz'
'nty_'
'not'
'nos'
'nokkuð_'
'nokkra_'
'nlega_'
'niðurfell'
'nivolumab'
'nide_'
'nica'
'nguna_'
'ngun'
'ngs'
'neutrop'
'netu'
'nervous_'
'nerv'
'nelfinavir_'
'neither_'
'neinu'
'neikvæð_'
'negotiat'
'nefna'
'ndur_'
'nds_'
'ndinn_'
'nautgripa'
'nata'
'narf'
'name'
'nab'
'músum_'
'móttöku'
'mótefnav'
'míð'
'mínút'
'míkróg'
'mæð'
'mælu'
'mælingu_'
'mánuð_'
'multip'
'mox'
'mobility_'
'mmól_'
'mmol_'
'mjúk'
'miðla'
'miði_'
'mip'
'minimis'
'ming'
'minant'
'milliverkunum_'
'milliverkanir_'
'milligram'
'mice_'
'mia_'
'meðferðinni_'
'metho'
'mented_'
'mem'
'meltingarvegi'
'mechanical_'
'mean'
'mble'
'maturity_'
'matsskýrslu'
'marat'
'manns_'
'mand'
'mainly_'
'mai'
'mabil'
'lýsir_'
'lúta'
'lön'
'líður_'
'lít'
'líkar'
'líkamsþyngd_'
'líkams'
'líkam'
'lífi'
'læð'
'læknisfræði'
'lækkandi_'
'látin'
'lysis_'
'lus_'
'lsi'
'lp'
'lou'
'loftb'
'loft_'
'loading_'
'ln'
'llt'
'ljósker_'
'ljósi'
'liði'
'litlaus_'
'litl'
'litera'
'litar'
'licences_'
'lic_'
'liabilities_'
'lia_'
'lf_'
'leyfishaf'
'ley'
'levo'
'lera'
'lens'
'lengra_'
'leiðs'
'leiðandi_'
'legri_'
'ldum_'
'lde'
'law'
'lat_'
'laktósa'
'lactati'
'labor'
'kúariðu_'
'könnun'
'kóða'
'kæmi'
'kvar'
'kurð'
'kringum'
'krafna_'
'kostur_'
'komin_'
'kolv'
'knún'
'kna'
'km'
'klínískri_'
'klin'
'klefa'
'kkland'
'kjó'
'kjar'
'kirtils'
'kine'
'kiln'
'kill'
'keys_'
'keypt'
'ketoconazol'
'kes'
'kennsl'
'kem_'
'kann'
'kallast_'
'kad'
'jú'
'jörðu_'
'jörð'
'jósk'
'jórna'
'jónust'
'járnoxíð_'
'justifi'
'judg'
'journey_'
'jointly_'
'jafn_'
'jafar_'
'jac'
'iðnaðar'
'iðgj'
'itun'
'itar'
'issuer_'
'irre'
'irnir_'
'ipu'
'involv'
'introduc'
'intermediar'
'interi'
'interactions_'
'inta'
'insur'
'insufficient_'
'innöndunar'
'innovati'
'innlei'
'innan'
'initiation_'
'inge'
'inform'
'infe'
'induce_'
'indinavir_'
'index_'
'incorporated_'
'improve'
'impro'
'importer'
'implement'
'implant'
'impl'
'ill_'
'igna'
'ifica'
'ied_'
'idl'
'identifying_'
'iconazole_'
'icin'
'iba'
'hömlun'
'hækku'
'hækkað'
'háþrýsting'
'hámarkss'
'hámarksh'
'hypot'
'hydroxide_'
'hydrochloride_'
'hydrocarbons_'
'hvöt'
'hvítum_'
'hvítblæði_'
'hverf'
'hvarfefni_'
'hungr'
'hun'
'hugsanleg'
'hrygg'
'hringi'
'hreyfla'
'hreinu'
'hreinl'
'hre'
'horf'
'hop'
'homo'
'hom'
'hlíf'
'hlutin'
'hliðstæð'
'hleðslu'
'hjartsláttar'
'hjartas'
'hinna_'
'hina'
'hil'
'hicle'
'heyrn'
'hereby_'
'herd'
'henta_'
'heita'
'heimt'
'heimi'
'heilbrigðisstarfs'
'height_'
'hei'
'hefir_'
'headl'
'hange'
'handhaf'
'hagnýt'
'hagkvæm'
'gáf'
'gy'
'gró'
'grá'
'growing_'
'grind'
'greiðsl'
'greiningaraðferði'
'greindu'
'grastim'
'gos'
'glö'
'glí'
'glyc'
'glas'
'gisti'
'gildin'
'gigt'
'ghte'
'getnaðarvörn_'
'gerðist_'
'gerðin'
'gentl'
'genotoxic'
'genic_'
'geira_'
'geira'
'gegna_'
'gefi_'
'gases_'
'gara'
'gag'
'föt'
'fóru_'
'fætur_'
'færð'
'færi_'
'fán'
'fundin'
'fundi_'
'fund_'
'fun'
'fucke'
'frú_'
'frávik'
'frádr'
'frumur_'
'frums'
'frumkv'
'frjálsa'
'freyðivín'
'frequently_'
'framse'
'framlenging'
'forward'
'folli'
'foli'
'fnd'
'fn'
'flutningskerfisstjóra'
'fluid_'
'flugvelli'
'flugvalla_'
'flugr'
'flugleiðsöguþjónustu_'
'flugi'
'flugh'
'floor_'
'flog'
'fljót'
'flei'
'flam'
'fjölskyldu_'
'fjöll'
'fjögur'
'fjármögnun_'
'fjármálagerninga'
'fjárfest'
'fj'
'fið_'
'fix'
'fiska'
'fis'
'finance'
'final'
'filgrastim_'
'ffs_'
'ffi'
'festi'
'feed'
'fed'
'febrúar_'
'fasts'
'fastr'
'fangs'
'faci'
'eðlilegr'
'extend_'
'explo'
'expens'
'expenditure_'
'exercised_'
'exer'
'excreted_'
'examine_'
'evaluati'
'ety_'
'ethan'
'esíu'
'estimates_'
'eskj'
'escape_'
'erðir'
'eru'
'erse_'
'ero'
'erli'
'erfðaefni_'
'erfða'
'erf'
'ered_'
'ere'
'equivalen'
'epre'
'enu'
'entit'
'ented_'
'enhance'
'endurskoðað'
'endurn'
'endurgjald'
'endinga'
'endanlega'
'enci'
'enabling_'
'employer_'
'emit'
'elling'
'ella'
'eligible_'
'eldisstöð'
'ela'
'eiturverkanir_'
'eiturefnafræði'
'eitr'
'eiti'
'einkenn'
'eina'
'eiki'
'eign'
'eiginleikar_'
'eigind'
'eight_'
'eholders_'
'eglu'
'efnisþátt'
'efnaskipt'
'efnas'
'efnanna_'
'efnaf'
'educational_'
'edit'
'ect'
'ebra'
'ease_'
'dýralækni'
'dál'
'dysfunction_'
'dv'
'duft'
'drí'
'driver'
'dreifingar'
'drain'
'dot'
'dne'
'dizziness_'
'division'
'dit'
'dispute'
'discomfort_'
'direction_'
'dir'
'dical'
'dexametas'
'determining_'
'detected_'
'desirable_'
'derogations_'
'deposit'
'demand'
'dema'
'delet'
'deig'
'defici'
'deferr'
'deep_'
'deck_'
'deb'
'ddin'
'dde'
'dauðsf'
'dad_'
'dab'
'cup'
'ctor'
'cted_'
'crow'
'creati'
'crack'
'cour'
'corn'
'cord'
'copies_'
'consum'
'constitu'
'consolidated_'
'consolidat'
'consequences_'
'conclusion_'
'conce'
'competitive'
'compe'
'comparat'
'commonly_'
'cob'
'clu'
'closure_'
'class'
'cill'
'chosen_'
'cholesterol_'
'chol'
'charged_'
'cept_'
'cellular_'
'cats_'
'cations_'
'cardiovascular_'
'calculati'
'cable_'
'búð'
'bútýl'
'búsett'
'bún'
'búf'
'bör'
'bótar'
'bóluefnis'
'bóluefn'
'bá'
'byggja_'
'butyl_'
'burt'
'bundið_'
'brotthvarf'
'brom'
'bregð'
'bottom'
'bottles_'
'bortezomib_'
'borne_'
'borga'
'book'
'blóðvökva_'
'blóðsyk'
'blóðleysi_'
'blóðfr'
'bly_'
'blast'
'bjóð'
'bilun_'
'betra'
'berst_'
'berg'
'beneficiar'
'beiðni'
'behaviour'
'bec'
'bau'
'aðsta'
'aðildarríkið_'
'aðil'
'aðgreind'
'aðferðin'
'aveiki'
'auðveld'
'auðkenning'
'aukaverkun_'
'augu_'
'audiovisual_'
'atin'
'athy'
'athugasemdir_'
'atburð'
'asvæð'
'astr'
'assessments_'
'assembly_'
'assay_'
'asp'
'asm'
'article_'
'art_'
'arrangement_'
'arp'
'arbi'
'aran'
'aquatic_'
'apríl_'
'appli'
'appears_'
'appe'
'apo'
'antigen'
'antid'
'anga_'
'ands_'
'andlit'
'andans_'
'andan'
'analyse'
'anaemia_'
'amþykk'
'amf'
'amend_'
'alþjóðlegr'
'alvarlegar_'
'although_'
'almennings_'
'alm'
'alis'
'aling_'
'alen'
'aldur_'
'aldin'
'alaus'
'ake_'
'agð'
'agliflozin_'
'afurða'
'afturk'
'afskrif'
'afköst'
'afhending'
'affix'
'affi'
'afa'
'advance'
'adren'
'adjusted_'
'adhe'
'activ'
'achiev'
'ach_'
'accom'
'accessi'
'acceptable_'
'abo'
'ab_'
'Zin'
'Who'
'While_'
'WH'
'Vöru'
'Vö'
'Vís'
'Viðskipt'
'Viðbótar'
'Ven'
'Varð'
'VU'
'VIC'
'VD'
'Up'
'Tho'
'Thera'
'Tha'
'Th'
'Tem'
'Talk_'
'Tal'
'Taki'
'TE_'
'TD'
'Sæ'
'Sá'
'Study_'
'Stofnun'
'Special_'
'Speci'
'SoloStar_'
'Skr'
'Skip'
'Skilyrði'
'Sing'
'Sin'
'Samræmi'
'Saman'
'STI'
'SKI'
'SER'
'Rí'
'Rot'
'Rh'
'Republic_'
'Repa'
'Remov'
'Remi'
'Rati'
'Rac'
'RV'
'Prote'
'Prop'
'Procedure'
'Pra'
'Pr'
'Parts_'
'Paragraph'
'Pal'
'PREZISTA_'
'PC_'
'PB'
'P450_'
'Ou'
'Operati'
'Ofnæmi_'
'OS'
'Núna_'
'Niðurstöður_'
'NOx_'
'Mode'
'Meðal_'
'Mex'
'Method_'
'Meth'
'Meta'
'Meg'
'Medicines_'
'Medic'
'Mc'
'Mat_'
'Marg'
'Mad'
'Lán'
'Lág'
'Lyf_'
'Los'
'Loft'
'Loca'
'Lim'
'Leo'
'Lei'
'Leggja_'
'Lar'
'LC'
'KwikPen_'
'Kin'
'Kerfi'
'KR'
'Jó'
'JÓ'
'Jesus_'
'Jer'
'Ireland_'
'Induct'
'Incr'
'Im'
'ISA'
'IRE'
'INGA'
'IDE'
'Hé'
'Hægt_'
'Hrað'
'Hos'
'Hor'
'Holl'
'Hold_'
'Hjálp'
'Hex'
'Hefurðu_'
'Hefur_'
'HL'
'Gri'
'Grei'
'Gr'
'Gjö'
'Geturðu_'
'Gerðu_'
'GS'
'GL'
'GEN_'
'GAR'
'Fyrsta_'
'Framleiðsla_'
'Framleiðandi_'
'Framkvæmdastjórn'
'Framkvæm'
'Following_'
'Flugmálastjórn_'
'Fli'
'Fire'
'Fast'
'Fac'
'Evrópska_'
'Est'
'Einhver'
'Economic_'
'Eco'
'EXP_'
'EES_'
'EEA_'
'ECD'
'Dete'
'Des'
'Dani'
'Court_'
'Contents_'
'Conse'
'Communit'
'Communication'
'Coll'
'Clinical_'
'Clea'
'Christ'
'Cel'
'Caution_'
'CU'
'CM'
'CER'
'CE'
'Buc'
'Bru'
'Bras'
'Brad'
'Bondronat_'
'Bir'
'Beta'
'Bayer_'
'Barn'
'Bal'
'Aðs'
'Aðg'
'Auðvitað_'
'Authori'
'Athuga'
'April_'
'Annar_'
'Amm'
'Ali'
'Algeng'
'According'
'Acce'
'ATC_'
'ALL_'
'ACC'
'= _'
'42'
'3A'
'107_'
'.“‘_'
'.:_'
'....'
'.), _'
'."'
'. "'
'**'
')“'
')),'
') = _'
' ['
' ._'
' (%)'
' & _'
'"_'
'‘(_'
'þókn'
'þí'
'þæ'
'þátttakand'
'þyr'
'þynningu_'
'þurrk'
'þungun_'
'þroskun'
'þro'
'þriðj'
'þreng'
'þola'
'þjónustunn'
'þem'
'þekkir_'
'þekking'
'þega'
'þaðan_'
'þarm'
'ýtó'
'ýmist_'
'ýki_'
'úð'
'útsending'
'útbúi'
'úrgangi_'
'úre'
'úa_'
'öryggis_'
'örvun'
'örv'
'örn_'
'öpun'
'öppu'
'öndunarerfiðleik'
'öndum_'
'ömm'
'öm'
'óveruleg'
'óvar'
'óu'
'ópí'
'ónæmisbæl'
'ónæmi'
'óna'
'ófu'
'ðni'
'ðla'
'ðir'
'ðing'
'ðh'
'íði'
'íðefn'
'ív'
'íun'
'ísku'
'íp'
'ínur_'
'ílátu'
'íl_'
'íkomu'
'íhlutu'
'íbúð'
'éttu'
'étt'
'ér'
'æðu'
'æðs'
'æðin'
'æði'
'ættan'
'ætlar_'
'ærð_'
'ækj'
'æ_'
'áðu'
'áði'
'ávinningur_'
'átti'
'átta'
'ástæða_'
'árangur'
'álk'
'ákveðin_'
'ákveð'
'ákvarða'
'áhættust'
'áhe'
'ága'
'áfylltu'
'Þjónust'
'Þj'
'ÝS'
'Úts'
'Írland'
'Íh'
'ÍS'
'É'
'Áhætt'
'zyme_'
'yði'
'yti'
'yrn'
'yrirtæk'
'ynd_'
'yield'
'yfirv'
'yfirtöku'
'yfirborð'
'yer_'
'yed_'
'ydd'
'ycl'
'xes'
'xar'
'x1_'
'wouldn_'
'worsen'
'withdraw_'
'with'
'wish'
'wide'
'wic'
'wheel'
'wer'
'watch_'
'warning'
'wal'
'waiting_'
'wag'
'vöðvum_'
'vöxt_'
'vörun'
'vök'
'víri_'
'víg'
'vær'
'væga'
'vátryggingar'
'vun'
'vona'
'volunteers_'
'voluntar'
'voice_'
'viðv'
'viðskiptavinur'
'viðskiptavini'
'viðmiðun'
'viðbætt'
'viðauk'
'visual_'
'virðist_'
'vinnuá'
'vinnuveit'
'vinnur_'
'vinnum'
'vind'
'vetnis'
'vert'
'versnun_'
'verndu'
'verklag'
'verkf'
'verifier'
'venjulegu'
'venju'
'veldi'
'vein_'
'vegetables_'
'vefjum_'
'ved_'
'vatnsfr'
'vatns_'
'vatni'
'vastatin_'
'varin'
'vana'
'valve'
'valu'
'valkost'
'validity_'
'vakt'
'vaki'
'uði'
'utt'
'uti'
'ut_'
'usti'
'use'
'urv'
'uriti'
'urin'
'upphaflega'
'uppfærðar_'
'unus'
'unr'
'unin_'
'uniform'
'ungi_'
'unga'
'undirbúnings'
'undirbúni'
'undirb'
'undertaken_'
'understood_'
'undar'
'uncertainty_'
'umsækj'
'umna'
'umhverfi_'
'umfram_'
'umfangs'
'umeclidinium'
'umbú'
'umboðs'
'ultr'
'uls'
'ulat'
'tölum_'
'tölfræðilega'
'tökum_'
'tón'
'tímamarka_'
'tímabili'
'tækniþ'
'tæknilega_'
'twi'
'turni'
'tungumáli_'
'tunar'
'tta_'
'tri_'
'treatments_'
'trav'
'tras'
'transparency_'
'transform'
'transam'
'trametinib'
'tou'
'tongue_'
'tol'
'tock'
'tjón'
'titrat'
'tise'
'tired_'
'tional_'
'tine'
'tilvik'
'tilvi'
'tiltekið_'
'tilmæli'
'tilmæl'
'tilkynningu'
'tilfinning_'
'tilbún'
'ths_'
'thoroughly_'
'texta'
'tetra'
'tenófóv'
'tenn'
'tening_'
'tengdr'
'tel_'
'tekn'
'tegundarvottorð'
'technologies_'
'tec'
'team_'
'tau'
'taneous'
'tall'
'talað'
'tala'
'takmörkun_'
'takmarkað_'
'tage'
'tafl'
'sýni'
'sýndi_'
'sýnatöku_'
'sýkinga'
'súlu'
'súlfón'
'súkrós'
'sóma'
'síða'
'sértæku'
'sérstakra_'
'sérl'
'sáttmálan'
'sársauk'
'sáp'
'systematic'
'swin'
'swa'
'svörun'
'svö'
'svæða_'
'svolítið_'
'sveit'
'sveigj'
'svefn'
'svarar_'
'suð'
'sustainab'
'suspended_'
'suspe'
'supported_'
'sulphon'
'substantia'
'subsidiari'
'subsidi'
'subse'
'submission_'
'stýrin'
'stöðluð'
'stök'
'stífl'
'stuðul'
'stuðning_'
'stungustað_'
'strik'
'streymi'
'strengthen'
'strategi'
'storkuþ'
'stofnfr'
'stofnað_'
'stofna'
'stjórnsýslufyrirmæli_'
'stjórnin'
'stjóri_'
'stigm'
'sterkj'
'staði'
'staðfestingar_'
'staðals_'
'station_'
'starfsmönnum_'
'starfsfólk'
'starfandi_'
'staka'
'ssion'
'sses'
'ssed_'
'sse'
'spurningu'
'spurninga'
'sprin'
'sprengiefn'
'spread_'
'spray'
'sprautun'
'spila'
'sph'
'spenn'
'soci'
'soa'
'sner'
'smíð'
'smám_'
'smoke_'
'smalle'
'slímhúð'
'slím'
'sly'
'slum'
'sludge_'
'slow_'
'slow'
'skó'
'skyldum'
'skylda'
'sky'
'skur_'
'skuldbindingu'
'skráset'
'skráning'
'skrifa'
'skjald'
'skjala'
'skiptu'
'skilgreindir_'
'skilgreina_'
'skilað_'
'skerði'
'skaðleg'
'skap'
'skammtast'
'sjúklings'
'sjúkdóms_'
'sjúkdóma'
'sjó_'
'sjálfstætt_'
'sjálfbær'
'size'
'sit_'
'sirolimus_'
'sir'
'sin_'
'simul'
'silk'
'signat'
'sight_'
'showing_'
'should'
'shin'
'shak'
'sgr'
'settu'
'settle_'
'sent'
'sense'
'sendu'
'sendingar_'
'semen_'
'seme'
'segðu_'
'seem'
'seas'
'sche'
'scared_'
'sauðfé'
'saquinavir_'
'samtöku'
'samtaka_'
'samsvar'
'samskipta'
'samsk'
'samsettri_'
'samsetta_'
'samræming'
'samræma_'
'samruna'
'samninginn_'
'samninga'
'samk'
'samhe'
'same'
'saltsýr'
'salmonell'
'safna'
'rýmis'
'rörlykju'
'rök_'
'rðum_'
'ríkisborgar'
'ríkis_'
'rétti'
'réttan_'
'rækta'
'ráðs'
'ráðin'
'ráðgjöf_'
'ráðandi_'
'rymea'
'ryk'
'rus'
'rud'
'rse'
'roxa'
'routes_'
'roph'
'rooms_'
'rol'
'roaming_'
'rni'
'rica'
'reynsl'
'revo'
'revised_'
'reus'
'returned_'
'restraint'
'restor'
'repro'
'repa'
'remu'
'remain'
'rely_'
'rekstrarsamhæf'
'rekstraraðili_'
'reiða'
'reiknaður_'
'regn'
'reglu_'
'reflect_'
'refin'
'recur'
'recording_'
'record'
'react'
'raði'
'rau'
'rarely_'
'rannsóknarinnar_'
'rannsaka_'
'randomised_'
'raised_'
'rafhlöðu'
'radiol'
'rabbits_'
'quir'
'quen'
'qualifi'
'pökku'
'pípu'
'píp'
'pyri'
'pta'
'psoriasis_'
'pse'
'prót'
'prófunars'
'prófum_'
'prófi'
'prófe'
'prurit'
'proportion'
'property_'
'pron'
'promoti'
'proceedings_'
'probably_'
'preventi'
'prescription'
'premixture'
'premi'
'preferably_'
'preceding_'
'pple'
'ppl'
'pped_'
'ppa'
'powder'
'poultry_'
'pose'
'poor_'
'plöntuvarnarefn'
'plu'
'pleas'
'play'
'plates_'
'planned_'
'planes_'
'phosphorus_'
'phenol'
'pharmac'
'permi'
'pera'
'paz'
'partners'
'pappír_'
'pancrea'
'pan_'
'pair'
'pain'
'oðu'
'oxetin'
'overl'
'our'
'otid'
'oste'
'osfat'
'orði'
'orr'
'orkug'
'ork'
'organ'
'orally_'
'optim'
'opinn'
'opinberu_'
'operab'
'ono'
'olute'
'olin'
'oga'
'offering_'
'offe'
'oetin_'
'observation_'
'oblig'
'obe'
'oC'
'númerið_'
'nítr'
'náu'
'nánari_'
'nákvæmni_'
'nuð_'
'numb'
'nucle'
'nto'
'now'
'notu'
'notkunarskilyrð'
'nothæf'
'noted_'
'norð'
'nob'
'nið_'
'nirnar_'
'ngd'
'neytenda_'
'neytenda'
'neys'
'nep'
'neinn_'
'neinn'
'nefndina_'
'ndel'
'nch_'
'nau'
'nationals_'
'nati'
'nak'
'mörg'
'möguleika'
'möguleik'
'móðurf'
'mótefna'
'món'
'mínútur_'
'mínútu_'
'myndmiðl'
'mus_'
'mst_'
'mpl'
'mpa'
'mp_'
'mos'
'morta'
'monkey'
'moni'
'module'
'modify'
'mning'
'mjöl'
'mjólkurs'
'mixtúru'
'mission_'
'misa'
'minimal'
'millig'
'migra'
'meðferðarhóp'
'methodolog'
'meters_'
'metan'
'metals_'
'metabolite_'
'metabolic_'
'mest_'
'merkir_'
'merkingar_'
'mera'
'mer_'
'mens'
'meginreglur_'
'medic'
'mea'
'max_'
'matvæla_'
'matin'
'matic'
'marks'
'marked_'
'markaðsaðil'
'markaðnum_'
'manual_'
'mandatory_'
'manager_'
'mal_'
'maker'
'magns'
'lút'
'lögf'
'lítur_'
'líkleg'
'líka'
'líffæri'
'lét'
'læknir_'
'lækn'
'lækku'
'lár'
'lágmarkss'
'lyfjameðferð_'
'lur_'
'luc'
'lst_'
'lsa'
'lotu'
'lot'
'losna'
'lop'
'lon_'
'logo'
'lofts_'
'loftfara_'
'local'
'loade'
'ln_'
'lling_'
'llation_'
'lki'
'ljú'
'lja'
'livi'
'lits'
'listi'
'light'
'lifrars'
'lifrarb'
'lft'
'levó'
'lenging'
'leiðum_'
'leiðslu'
'leiðbeininga'
'leigu_'
'leig'
'legrar_'
'legislati'
'leggur_'
'lati'
'lated_'
'langvinna_'
'landsvæð'
'landslögum_'
'landslög'
'landi'
'landfræðileg'
'landbúnaði_'
'lampa'
'lact'
'lack_'
'köttu'
'köllu'
'kóða_'
'kón'
'kísil'
'kírtein'
'ká'
'kynj'
'kyni_'
'kyng'
'kvætt_'
'kus'
'ktar'
'kran'
'krabbameinslyfjameðferð'
'konungsríki'
'konun'
'komul'
'kolefnis'
'kok'
'klínísku_'
'klukk'
'kkt'
'kjör_'
'kjal'
'kipta'
'kilj'
'keðju'
'kenni_'
'keið'
'keeping_'
'kas'
'karbó'
'kWh_'
'júk'
'jöfu'
'jós_'
'jórnu'
'jórn_'
'juð'
'juve'
'junar'
'jað'
'jast'
'jafnaði_'
'iðr'
'iðnaði'
'ixi'
'ivacaftor_'
'itr'
'itch'
'itab'
'ita_'
'iste'
'isla'
'isk'
'irritati'
'ira_'
'intramuscular_'
'intra_'
'interface'
'interc'
'integrati'
'integra'
'int_'
'institut'
'input'
'innrennslisþykkni_'
'innlendum_'
'innl'
'innihald'
'innflytj'
'innbyggð'
'ingun'
'ingin_'
'inga_'
'infr'
'inda'
'increasing_'
'incomp'
'inclusion_'
'incident_'
'inadequate'
'impr'
'importa'
'imatinib_'
'imate'
'ilu'
'ilt'
'illus'
'ilega'
'ildi'
'ik_'
'ignition_'
'igi_'
'iga'
'iene_'
'ien'
'identifie'
'icul'
'hýdrat_'
'húða'
'húsinu_'
'hör'
'höfn_'
'hóst'
'hóf'
'hérað'
'hæð'
'hæfis'
'háðu'
'hálsi'
'háls'
'hylkj'
'hylkin'
'hydroxy'
'hydrochloric_'
'hydra'
'hvítr'
'hvetja_'
'husband_'
'hurð'
'hrí'
'hreinsunar'
'hormóna'
'horizontal_'
'hni'
'hne'
'hnapp'
'hle'
'hjóli'
'hjóla'
'hjálpa'
'hjartsláttartrufl'
'hitun'
'hindrun'
'heter'
'herra'
'here'
'herb'
'hend'
'helming'
'heim'
'heilab'
'hefðu'
'hefðir_'
'hed'
'heater'
'hear'
'heads_'
'heading_'
'harmonis'
'haps_'
'hang'
'handle'
'hagsmunaaðila'
'hagskýrslu'
'hafir_'
'góður_'
'gull'
'guarantees_'
'grunnvirkj'
'grow'
'grip'
'gres'
'greind'
'granting_'
'gradually_'
'gradua'
'got'
'gm'
'glýser'
'glúkósa_'
'glut'
'glipt'
'gli_'
'gjaldmiðl'
'gjafa'
'girls_'
'gildistím'
'geymsluþol'
'gets_'
'gentlemen_'
'genetic_'
'generated_'
'gelat'
'gefnar_'
'gear_'
'gation_'
'gagnsæ'
'föld'
'fótlegg'
'fórna'
'fína'
'félög_'
'félagsins_'
'færslu'
'færsl'
'fækkun_'
'fást_'
'fáanlegu_'
'fyrrnefnd'
'fyrirmynd'
'fyrirbyggjandi_'
'fynd'
'fyllt'
'fylgd'
'furðu'
'furn'
'fulltrúi_'
'fulltrúar_'
'fullkom'
'ful'
'fuglu'
'ftu'
'fta'
'frétti'
'fræðilegr'
'fryst'
'frestu'
'frequent_'
'fremi_'
'free'
'frame'
'fourth_'
'forskriftir_'
'formulation'
'formula_'
'formation'
'formal_'
'forest'
'foot'
'foo'
'fon'
'foc'
'fnun'
'fnu'
'fnað'
'flutningsg'
'flutningaf'
'flush'
'fluoro'
'flugrekandi'
'flows_'
'flott'
'flokku'
'flokknum_'
'flat'
'flask_'
'flag_'
'fjór'
'fits_'
'fit_'
'fishery_'
'finish_'
'fin_'
'filmuhúðuð'
'film'
'fighting_'
'ffl'
'feron'
'ferm'
'ferl'
'fenól'
'felst_'
'fað'
'fasa_'
'fas'
'farga'
'fang_'
'faggilding'
'fac'
'eðlilega_'
'eði'
'ez'
'eyðublaði'
'eyðing'
'eyða_'
'eyfis'
'expression_'
'export_'
'expire'
'exist'
'exhibit'
'exemption_'
'exceeded_'
'evi'
'evaporat'
'eva'
'eutical'
'etn'
'eting'
'esters_'
'erðu'
'erythema_'
'ermi'
'ering_'
'ergi'
'erfiðleika'
'erfið'
'erate'
'eral_'
'eph'
'envisaged_'
'enteri'
'enns'
'enl'
'engage'
'ene_'
'endurskoða'
'endurnýjunar'
'encou'
'encl'
'employe'
'emi_'
'embolism_'
'elta_'
'elska'
'elop'
'electric_'
'elda'
'eiturhrifum_'
'eitilfrumna'
'einstaklings'
'einstaklingi_'
'einstaka_'
'einnar_'
'einhverjum_'
'einhverj'
'eimingu_'
'eimil'
'eika'
'egund'
'egn'
'efu'
'eftirlitsaðila'
'eftirfylgni_'
'efnasambönd'
'efnablöndu'
'eds_'
'earn'
'earlie'
'ear'
'eam'
'dýrin_'
'dýrategund'
'dópa'
'dái'
'dysp'
'duty_'
'dust_'
'dula'
'drög'
'dró'
'dráttarv'
'drink'
'dried_'
'drengur'
'drekk'
'dm'
'div'
'dium_'
'disturbance'
'distinct'
'disseminat'
'disclosure_'
'disclose_'
'discard'
'dime'
'did'
'dial'
'diagnostic_'
'deviat'
'developmental_'
'descen'
'dering_'
'dena'
'demo'
'delay'
'deili'
'degradation_'
'def'
'deco'
'dden_'
'ddar_'
'dans'
'dac'
'cytes_'
'cycli'
'cycles_'
'custom'
'cumulative_'
'cting_'
'ctic_'
'cter'
'crosse'
'criterion_'
'crim'
'crib'
'covering_'
'corticosteroid'
'cool'
'constituents_'
'constant_'
'consist_'
'consignment'
'consent_'
'conjunction_'
'conform'
'confidence_'
'concu'
'conclu'
'computer_'
'compris'
'compose'
'complying_'
'complaint'
'command_'
'combinations_'
'college_'
'colle'
'collateral_'
'codes_'
'clop'
'client_'
'clear'
'cle_'
'clause'
'citr'
'cip'
'cile'
'choose'
'chlor'
'chick'
'checked_'
'check'
'chamber'
'cetaxel'
'centres_'
'cell'
'ceiling'
'catch'
'carriage_'
'býli'
'búnaðurinn_'
'búnað'
'bújörðin'
'bóluefnið_'
'bókhald'
'bærr'
'báð'
'byggð'
'bus_'
'bundinn_'
'bundin'
'bulk'
'budget'
'buc'
'bróðir_'
'brottf'
'brie'
'breyta'
'boð_'
'boys_'
'bog'
'boat'
'blönduð'
'blöndunn'
'blóðþrýstings'
'blóðskilun_'
'blóðk'
'blóði'
'blæðingu'
'blát'
'blandað_'
'bioa'
'binding'
'bin_'
'bilirubin'
'beðið_'
'besartan_'
'bers'
'berast_'
'beitir_'
'beiting'
'beinn'
'beining'
'bbi'
'barrier'
'barna_'
'banna_'
'bank_'
'ball_'
'aðstoða'
'aðh'
'aðgerðin'
'aðar'
'aðals'
'ay_'
'auðl'
'automatic_'
'auto'
'authorise_'
'auth'
'aus'
'aukefni'
'atí'
'atvinnugreina'
'ats_'
'atory_'
'athafna'
'ater'
'atazanavir_'
'astofn'
'assigned_'
'assa'
'arði'
'arterial_'
'arrhythmia'
'arrest'
'aroma'
'arma'
'arka'
'aqueous_'
'apse'
'apr'
'appro'
'appr'
'applica'
'ape'
'apart'
'antic'
'antibody_'
'antagonist'
'antage'
'angle'
'ane_'
'ande'
'analog'
'aml'
'ame_'
'alþ'
'alvar'
'alternative'
'almennu'
'almenn'
'alli'
'allað'
'aliskiren_'
'alin'
'alia_'
'aldinu'
'albu'
'alb'
'alat'
'akr'
'ahead_'
'agonist'
'aggregat'
'afli'
'afla_'
'affect'
'aeroplane_'
'aerodrome_'
'ado'
'addresse'
'adapte'
'ada'
'activate'
'aco'
'acl'
'ache'
'accompany'
'acco'
'accidental'
'abli'
'ZE'
'York_'
'XA'
'Within_'
'West'
'Weigh'
'Water'
'Wash'
'Vök'
'Vín'
'Vé'
'Vor'
'Viður'
'Vita'
'Vira'
'Vinn'
'Vil'
'Vie'
'Vet'
'Verkun'
'Venjuleg'
'VFEND_'
'V6'
'Umsækjandi'
'Umb'
'Ul'
'US_'
'Töl'
'Tö'
'Tro'
'Transfer'
'Title_'
'Three_'
'Thr'
'Tan'
'Tac'
'TI_'
'TEN'
'TB'
'Sýni'
'Sý'
'Sértæk'
'Swit'
'Stöðv'
'Styrk'
'Stra'
'Stor'
'Stel'
'Spá'
'Speed_'
'Sou'
'Son'
'Social_'
'Sku'
'Skilgreining'
'Skamm'
'Sir'
'Should'
'Security_'
'Sav'
'Sameiginleg'
'Salmonella_'
'SB'
'SAM'
'Rétt'
'Russ'
'Requirement'
'Rena'
'Ren'
'Rekstraraðil'
'Rek'
'Reglu'
'Regi'
'Record'
'Reco'
'Rang'
'Ran'
'RN'
'RM'
'RL'
'Pugh_'
'Próf'
'Prin'
'Prevenar_'
'Point_'
'Pic'
'Phil'
'Pharma_'
'Ph_'
'Perm'
'Performance_'
'Pea'
'Pass'
'Pack'
'PS_'
'PP_'
'PP'
'PER'
'PCB_'
'PCB'
'Organ'
'Ope'
'On'
'OV'
'Næ'
'NutropinAq_'
'Note_'
'Notað'
'North'
'Nord'
'Nobody_'
'Nice_'
'NexoBrid_'
'Never'
'NSAID'
'NAV'
'N2'
'Mót'
'Mælt_'
'Mynd'
'Mul'
'Most_'
'Miss_'
'Mich'
'Meðalt'
'Met'
'Merki'
'Mel'
'Measure'
'Matvælaöryggisstofnun_'
'Matvælaöryggisstofnun'
'Market'
'Management_'
'Mam'
'MM'
'MC'
'Lyfið_'
'Lilly_'
'Leyfi'
'Leyf'
'Lab'
'LY'
'LV_'
'LUC'
'LEG'
'Kö'
'Kyn'
'Kra'
'Kong'
'Kn'
'KVÆ'
'Jen'
'Jafnv'
'Israel_'
'Instru'
'Indicat'
'India'
'Immun'
'Hætta_'
'Hypersensitivity_'
'Hví'
'Human_'
'Hugsanleg'
'Hring'
'Hous'
'Holly'
'Hluta'
'Heyrðu_'
'Hepati'
'Heldurðu_'
'Harr'
'HV'
'HC'
'Guðs_'
'Green'
'Great'
'Gley'
'Getu'
'Gardasil_'
'GO'
'GNSS'
'GF'
'GC'
'GAG'
'G3_'
'Fólk_'
'Fylgjast_'
'Fló'
'Flutning'
'Fir'
'Financial_'
'FORS'
'FM'
'FC'
'Exe'
'Every'
'Even_'
'Eu'
'Epi'
'Emtriva_'
'Ell'
'Ele'
'Eining_'
'Ei'
'Efnastofnun'
'Efnah'
'Effic'
'Eb'
'ESS_'
'E171_'
'Dí'
'Does_'
'Dist'
'Dex'
'Descovy_'
'Day_'
'Cr'
'Could_'
'Conta'
'Consi'
'Competent_'
'Clo'
'Chl'
'Child_'
'Chic'
'Chai'
'Care_'
'CYP2C19_'
'CTC'
'CS_'
'COMM'
'CHAMPIX_'
'CEL'
'Bún'
'Bíddu_'
'Busi'
'Bland'
'Billy_'
'Bell'
'Bel'
'Bandalagið_'
'BRE'
'BRAF_'
'BCRP_'
'B3'
'Auto'
'Applica'
'America'
'Alþjóðasiglingamálastofnun'
'Afsak'
'Afr'
'ATA'
'?"'
'80'
'79'
'74'
'726'
'55'
'44_'
'34'
'32'
'2A_'
'245_'
'2020_'
'180'
'145'
'140_'
'130'
'116'
'111_'
'110'
'105_'
'104_'
'1000_'
'06'
'02'
'002_'
'.:'
'.........'
'." _'
','
')).'
'(*)'
'%.  _'
'"?'
'", '
' .  _'
' (‘_'
' (*), _'
' (*)'
' % (_'
'“.'
'“,'
'“)'
'“ (_'
'þúsund'
'þörmum_'
'þö'
'þéttb'
'þynningar'
'þurfti_'
'þungl'
'þunga'
'þrýstibúnað'
'þrý'
'þróað'
'þri'
'þreytu'
'þoli_'
'þol_'
'þo'
'þjóðleg'
'þekj'
'þarfnast_'
'þakka'
'ýsín'
'ýrð'
'ýra'
'ýni_'
'ýls'
'útveg'
'úttekt'
'útskil'
'útset'
'útrým'
'útiloka_'
'úth'
'útgj'
'útgefanda_'
'útbreiðslu_'
'útboð'
'úrgangs_'
'úrg'
'úrbót'
'únaði_'
'úmín'
'úin'
'úe'
'ösk'
'örk_'
'önd_'
'öldru'
'ökus'
'ökumann'
'ögðum_'
'öfur'
'óvið'
'óvirk'
'ótr'
'ósi_'
'ósamr'
'ósam'
'óre'
'ónavír'
'ókun'
'ókn_'
'óhó'
'óhei'
'ógn'
'óeðlilega'
'óefn'
'óbútýl'
'óbreytt_'
'ðning'
'ðlögun_'
'ðlis'
'ðarle'
'ítt'
'íti'
'írí'
'íni'
'ígræðslu'
'ífu'
'ífa'
'íbú'
'æðileg'
'æðak'
'æxlu'
'ævi'
'ætlaði'
'ætlaðar_'
'æs'
'ærð'
'ærslu'
'ær_'
'ænt'
'æfa'
'áðu_'
'áætlunin_'
'áætlað_'
'áætlana_'
'áætlan'
'ávö'
'áví'
'ást_'
'áreiðanlega'
'áreiðanleg'
'áran'
'álykta'
'álu'
'álin'
'álagi'
'ála_'
'ákvæ'
'ákveðnu'
'áhö'
'áhættuv'
'áhættuskuldbinding'
'áhuga'
'áfö'
'áfyllt'
'áform'
'áfall'
'áburð'
'Þu'
'Þarna_'
'Útb'
'Úrgangur_'
'Úr'
'Öku'
'ÖF'
'Óh'
'Ísraels'
'Át'
'®'
'zoo'
'zoli'
'zol'
'zine'
'zard'
'zal'
'yð'
'yto'
'ytin'
'yrðu'
'yrirtæki_'
'younger_'
'yon'
'yng'
'ylo'
'ylli'
'ylk'
'yggja'
'yfirl'
'yfirg'
'yfirfærsl'
'yfirborðsv'
'yfi'
'yellowi'
'yar'
'xyl'
'xtu'
'xo'
'xas'
'xacin_'
'wrap'
'worry_'
'worms_'
'woo'
'wis'
'wind_'
'wild_'
'width_'
'wear_'
'waterway_'
'waters_'
'wash_'
'wash'
'vörur'
'vörumerki'
'vöruflutninga_'
'vísindalega'
'vélræn'
'vélb'
'væð'
'vænta'
'vátryggingafél'
'váhrifum_'
'vr'
'vottað'
'volum'
'vocational_'
'viðurlög'
'viðurkenningar_'
'viðurkenninga'
'viðurkenndr'
'viðunandi_'
'viðta'
'viðskiptavina_'
'viðskiptavin'
'viðskiptale'
'viðræðu'
'viðmiðunartí'
'vita'
'vissu_'
'vissi_'
'virðisauk'
'virðing'
'viro'
'virkju'
'virka'
'vinur_'
'vinn_'
'vilji'
'vikuleg'
'vii'
'view'
'vials_'
'viab'
'verðmæti'
'verðbréfam'
'verðbréfa_'
'verndarráðstafan'
'verku'
'verksmiðju'
'vereign_'
'ventur'
'vell'
'veittu'
'veitand'
'veislu'
'vascular'
'vas'
'varúðar'
'varnar_'
'varna'
'variation_'
'vann_'
'valið_'
'valin_'
'validated_'
'vail'
'uða'
'uz'
'utím'
'ution_'
'utinib'
'utin'
'utanaðkomandi_'
'urðir'
'urum_'
'urs_'
'uration'
'uppt'
'uppsöfnun'
'uppskeru'
'uppset'
'uppsa'
'upplýsingas'
'upplýsingakerfi'
'upplýsi'
'upphafss'
'upphafsgild'
'uppbygg'
'unlike'
'ungu_'
'unglinga'
'undu'
'undirv'
'undirskrif'
'undirliggjandi_'
'undirhópu'
'understand'
'underlying_'
'undergo_'
'undergo'
'undanþegin_'
'umönnu'
'umsækjendu'
'umsækjandi_'
'ums_'
'umin'
'umhverfismál'
'umhverfismerki'
'umbrotsefn'
'umbrotnar_'
'ulcer'
'ulate_'
'ugað'
'uefni_'
'týr'
'týl'
'töðu'
'tölu_'
'tók'
'tímar'
'tímann_'
'tímabils_'
'tíaz'
'tæknilega'
'tækniframf'
'tækniforskrifti'
'tækis'
'tæki'
'tár'
'tvíhýdr'
'tvíblin'
'turi'
'tung'
'tual'
'ttur_'
'ttug'
'tto'
'ttn'
'trópín'
'trygg'
'truflun'
'truck_'
'trom'
'tric_'
'tria'
'tree'
'transmitted_'
'transmi'
'transition_'
'transferase_'
'transferas'
'transd'
'tral'
'trace'
'toxicological_'
'touch'
'top_'
'tooth'
'tons_'
'tonnes_'
'tonn_'
'tolerance_'
'tnað'
'tjald'
'tins'
'tiltæk_'
'tilskipun'
'tilla'
'till_'
'tilkynntu'
'tilhlýðileg'
'tilgreinir_'
'tilgang'
'tilfinninga'
'tilbúin_'
'tifi'
'tib'
'thyroid_'
'thrombocyt'
'throm'
'thre'
'thousand'
'tho'
'theo'
'tezom'
'terifl'
'teria'
'tent'
'tensin_'
'tengilið'
'tengda'
'ten'
'tempor'
'telling_'
'tekju'
'tein_'
'teikning'
'tegunda'
'tegu'
'teeth_'
'technique_'
'teach'
'tað_'
'tav'
'taugakerfi_'
'tative'
'tati'
'tapi'
'tant_'
'tam_'
'taldi'
'taktu'
'takmörkuð_'
'taining_'
'tail'
'tabl'
'tabin'
'sýnileg'
'sýnat'
'sýklalyfj'
'súrefni'
'sönnun'
'sölt_'
'söfn'
'sótthreins'
'sókn'
'síðarnefnd'
'síun'
'sít'
'síma'
'sértæk_'
'sérfræðin'
'sæð'
'sær'
'sæfiv'
'sæfi'
'sáu'
'syringes_'
'synthe'
'symptom'
'sym'
'sykurs'
'swor'
'sweet'
'sweat'
'svöru'
'svæðisb'
'svæðinu_'
'svæð'
'sveif'
'svei'
'sve'
'svara_'
'surp'
'surgi'
'suppliers_'
'sundl_'
'sulphur_'
'suga'
'sufficiently_'
'sucrose_'
'subset'
'subj'
'stýris'
'stúlku'
'stú'
'stöðvu'
'störfum_'
'stökkbreytingu'
'stökkbreytinga'
'stím'
'stær'
'stækkun'
'stáli_'
'styrki'
'stuttu_'
'stutta'
'strok'
'strip_'
'streng'
'strate'
'strange'
'stran'
'stra_'
'stork'
'stopping_'
'stoppe'
'stofna_'
'stjórnað_'
'stjórnand'
'stin_'
'stin'
'stimula'
'stillt'
'stilla_'
'sthe'
'steypu'
'stel'
'steinefn'
'steering_'
'sted'
'steam_'
'steady_'
'staðsett_'
'staðset'
'staðlaða'
'staðall_'
'stay'
'starfsstöð_'
'starfsleyfi_'
'starfsl'
'starfshætti_'
'starfsemin'
'starch_'
'standing_'
'stafanir_'
'ssment'
'ssible_'
'spyrja_'
'sprautur'
'sper'
'spennu'
'spen'
'spea'
'spare'
'span'
'sov'
'sound'
'sonur'
'soned_'
'solve'
'soluble_'
'soft_'
'snýst_'
'smásölu'
'smás'
'smá_'
'slíku_'
'slæm'
'sláturhús'
'slun_'
'slei'
'slaka'
'slagæð'
'slag'
'skýrslug'
'skýrsla'
'skömmtun_'
'skömm'
'skólp'
'skólan'
'skóla'
'skóg'
'skyldi'
'skyld'
'skygg'
'skum_'
'skuldir_'
'skuldbindi'
'skráningar_'
'skrána_'
'skrám'
'skoðanir_'
'skoti'
'skiptingu_'
'skipting'
'skim'
'skilgreinda'
'skilgrein'
'skerðingu'
'skemmdir_'
'skaða_'
'skapa_'
'skammtaa'
'sk_'
'sjúkrahús'
'sjúkdómsv'
'sjúkdóm_'
'sjúkdóm'
'sjálfk'
'sjálfboðalið'
'sjálfa'
'sitja_'
'silicon'
'signed_'
'sie'
'sica'
'shot_'
'shelf_'
'sheets_'
'shed'
'sever'
'seti'
'serotype'
'sero'
'ser_'
'sequen'
'separat'
'sentence_'
'sendingu_'
'seljand'
'selection_'
'sekúndur_'
'sediment_'
'sed'
'seal_'
'scu'
'saxa'
'save'
'sauð'
'sannr'
'sanngjarn'
'samþykkis_'
'samtö'
'samtengi'
'samsæ'
'samstæðureikningsskil'
'samsetningu'
'samrýma'
'samræmismat'
'samræmda_'
'samningsyfirv'
'samning'
'samkomulagi_'
'samh'
'sameiningu_'
'sameina'
'sameiginlegu'
'sameiginlegar_'
'samanstendur_'
'samansta'
'samanburðarrannsóknum_'
'samanburðarr'
'samanburðarh'
'sales_'
'sake'
'safeguard'
'rökst'
'rögð'
'róta'
'ríkju'
'ríkja_'
'réttu'
'réttlæti'
'réttl'
'rétth'
'rétt'
'ré'
'rænu'
'ræna'
'ráðn'
'ráðlegging'
'rán'
'rvation_'
'rupt'
'rsi'
'rox'
'row_'
'rnunar'
'rnin'
'rmi'
'rman'
'rma'
'rkenning'
'river'
'ritonaviri_'
'rior'
'rin_'
'riff'
'rifampic'
'rgu'
'reynist_'
'revis'
'retion_'
'retention_'
'retar'
'retain_'
'retail_'
'retai'
'resu'
'resolve'
'reserve'
'replicat'
'repla'
'rent_'
'rennsli'
'renna_'
'renewal'
'renew'
'renc'
'rena'
'remov'
'remote'
'relativ'
'rekstri_'
'rekstrarf'
'reject'
'reinsurance_'
'reining_'
'reikningur'
'reikningi'
'reiknað'
'reglugerðarinnar_'
'reglubundn'
'regardless_'
'refrigerat'
'refr'
'redi'
'recommendation_'
'recept'
'reasonably_'
'reagent'
'readily_'
'rdr'
'rd_'
'rauðk'
'raunh'
'rator_'
'rationa'
'rather_'
'rant'
'rannsóknarstofu_'
'randi_'
'rammasamning'
'rafs'
'rafmagns_'
'raf_'
'rae'
'radio'
'quarter'
'qualify'
'putt'
'pulat'
'public'
'psycho'
'pst'
'prufu'
'provisional_'
'protein'
'prot'
'pros'
'proportionate'
'proph'
'promise'
'prohibition'
'proh'
'prof'
'procee'
'proce'
'priv'
'prescrib'
'prentu'
'predo'
'predict'
'preci'
'ppm_'
'poten'
'posse'
'polyethylene_'
'polic'
'pola'
'plöntur_'
'plá'
'plunger_'
'plo'
'platin'
'platform'
'plantna_'
'planning_'
'pið_'
'pioglitazone_'
'pio'
'picture'
'physic'
'phospho'
'phospha'
'pher'
'phen'
'persónuupplýsinga'
'permits_'
'permanently_'
'perio'
'perid'
'pennan'
'penalties_'
'pee'
'pec'
'peak'
'participating_'
'participant_'
'parallel_'
'pappír'
'pane'
'page'
'packag'
'oði_'
'ozo'
'outl'
'otin'
'orða'
'orsök'
'orna'
'orkunýtni'
'organis'
'orate_'
'opr'
'opportunit'
'onia_'
'ong_'
'ones_'
'ometr'
'ology_'
'olic_'
'oki'
'oils_'
'ograph'
'ogli'
'ofn'
'ody_'
'oda'
'occurring_'
'nýtingu_'
'nýsköpun'
'næmis'
'nægi'
'nánar'
'nán'
'námi'
'nám_'
'nting_'
'normal'
'none'
'nominal_'
'nokkurra'
'nnsókn'
'nleika_'
'nlegu'
'nl'
'nju'
'niðurstaða'
'niðurg'
'nio'
'ninni_'
'nings'
'ningi_'
'ninga'
'nic'
'neytand'
'nein'
'neikvæða'
'negli'
'nee'
'neck_'
'necess'
'nearest_'
'nch'
'naðin'
'nauðsynlegum_'
'naut'
'nate_'
'narrow'
'nari'
'narefni_'
'names_'
'nai'
'mögulega_'
'móður_'
'míkrógrömm_'
'mælitæk'
'mælik'
'mæla'
'mát'
'mánaðar_'
'mynst'
'muscul'
'musc'
'mum'
'muco'
'mph'
'mous_'
'motor'
'motion_'
'mono_'
'mom'
'moisture_'
'modat'
'miz'
'mix_'
'mistök'
'mismunur'
'misl'
'minimise_'
'mineral_'
'minati'
'millive'
'millib'
'mikilvægur_'
'mikilvægi'
'mikilvæg'
'mikilli_'
'miki'
'meðtöldum_'
'meðhöndl'
'metra'
'meter'
'mesta'
'merk'
'mengunarvarna'
'meirihluta'
'meir'
'meint'
'medication_'
'mediate'
'mba'
'mature'
'mati'
'mas_'
'marktækt_'
'marktæka'
'markg'
'markaðsleyfishaf'
'markaðar_'
'map'
'mannin'
'malfunction'
'male'
'mag'
'lýsingar'
'löngu'
'lögreglu'
'löggj'
'lítra_'
'lítill_'
'línur'
'líkum_'
'líklega_'
'líkamsþ'
'líkamsh'
'líkaman'
'lífrænu'
'líffræðileg'
'lágmarkskr'
'lágmarka_'
'lykla'
'lying_'
'lyfleysu'
'lyfjap'
'lyfjaf'
'lutfall_'
'lungs'
'lunar'
'lude'
'lso'
'loxacin_'
'lotu_'
'lots_'
'losunarsk'
'losað'
'losa'
'lokuð'
'lokinni_'
'locati'
'lob'
'loans_'
'loan'
'lls'
'llen'
'liðnu'
'litni'
'litlu_'
'litla'
'linu_'
'line'
'limitations_'
'lighting_'
'lifa'
'liable_'
'lfin'
'leysist'
'leysin'
'leysan'
'leynd'
'leyfið_'
'leyfisveit'
'lesale_'
'lengri_'
'lenge'
'lement'
'leiðréttingar'
'leiði'
'lding'
'layer_'
'lausnir_'
'lausnar'
'lausn'
'launþeg'
'latin'
'landfræðilega'
'lagni'
'lagas'
'lacement_'
'kúpu'
'köfnunarefnis'
'kílómetra'
'kíló'
'kæ'
'kyrni'
'kynslóð'
'kvenna'
'kunar'
'kröfunum_'
'kru'
'krin'
'kre'
'krabba'
'kot'
'kona_'
'klín'
'kláða_'
'klár'
'klau'
'kks'
'kkna'
'kkju'
'kja_'
'kirtl'
'kira'
'kinn'
'kilyrði'
'kid_'
'ketó'
'kers_'
'kerfisbund'
'kerf'
'kem'
'kee'
'kat'
'kari'
'kanínum_'
'kammtur'
'kaffi'
'kaf'
'júga'
'jöf'
'jö'
'jóðu'
'jáanleg'
'jurisdiction'
'juf'
'jet'
'jað_'
'jara'
'jal'
'jafngildir_'
'iðurkenning'
'iza'
'iv_'
'ith_'
'ited_'
'ister_'
'issuing_'
'isch'
'isam'
'irs_'
'irri'
'iri'
'involve_'
'invite'
'intrav'
'intervention'
'interpretati'
'intercon'
'intent'
'integrity_'
'insúlíns'
'innta'
'innslu_'
'innsigli'
'innlenda'
'innla'
'innkaupa'
'innkaup'
'innihaldsefni'
'innihaldið_'
'innh'
'inndæling'
'injector_'
'ings'
'ingr'
'ingj'
'ingarn'
'influen'
'infect'
'induction_'
'indicators_'
'indicative_'
'independen'
'incurred_'
'incinerat'
'inavir_'
'inac'
'imposed_'
'implic'
'ikt_'
'igu'
'igr'
'igi'
'ifications_'
'iev'
'ience'
'identit'
'ident_'
'ich'
'icate'
'ican_'
'hýsi'
'hýdróklóríð'
'hýdroxíð'
'hýdro'
'húsið_'
'húsdýr'
'hönnunar'
'hönd'
'hön'
'höfuðverkur_'
'hópa'
'hófs'
'héldu'
'hé'
'hættir'
'hæfu'
'hæfi'
'hávað'
'hátt'
'hál'
'hypoglycaemi'
'hydrogen_'
'hydroc'
'hvörf'
'hvítu'
'hvíldar'
'hvoru'
'hvol'
'hurt_'
'hunda_'
'hugsanlegr'
'hugsanleg_'
'hrist'
'hrifa'
'hraði_'
'hospital_'
'hosphate_'
'horse_'
'horn_'
'horfa'
'holi'
'holdings_'
'hno'
'hlutverk'
'hlutl'
'hjö'
'hjál'
'hitastig_'
'hitar'
'hide_'
'heyrði'
'herp'
'herl'
'hepar'
'hentu'
'heml'
'hemill_'
'helst_'
'heldu'
'heimsókn'
'heimildir_'
'heimilað_'
'heildarv'
'heildarf'
'heilbrigðis_'
'hefðbundin'
'hefjast_'
'heavy_'
'heav'
'healthcare_'
'hate_'
'hann'
'hangi'
'handle_'
'handhafa_'
'hamlandi_'
'halla'
'haldist_'
'hafa'
'haemodialysis_'
'haematologic'
'göt'
'gði'
'gír'
'gæðakerfi'
'gætu'
'gætt_'
'gær_'
'gátta'
'gy_'
'gui'
'gróðurhúsalofttegunda_'
'græ'
'gráð'
'grunnvirki'
'grunnv'
'grunnf'
'greiðslumiðl'
'greiða'
'greindi'
'green_'
'graph_'
'graft'
'grade_'
'gona'
'gnor'
'gnar'
'glös'
'glycer'
'glugga'
'glan'
'gjum_'
'gjarn'
'gjaldþ'
'gjalds'
'gjafi'
'gic'
'gible_'
'gib'
'geymslus'
'geymd_'
'getu'
'getnaðarvarnar'
'getið_'
'gerðarv'
'gerða_'
'gervih'
'gerum_'
'gerast_'
'geometr'
'geograph'
'gengis'
'gengin'
'geislamerk'
'gaðu'
'gangs'
'gamla'
'gagnsæi'
'gagnav'
'fólk'
'fíkn'
'félags_'
'fæðingu'
'færum_'
'færni_'
'færan'
'fækk'
'fyrningardagsetningu_'
'fyrirkomulagi_'
'fyrirkom'
'fyrirhugað'
'fylling'
'fylla_'
'fyll'
'fylgiskj'
'fylgiseðli'
'fusion'
'furo'
'funn'
'fullunn'
'fræðin'
'fræðilegt_'
'frávik_'
'frumn'
'fron'
'frelsi_'
'framtíðinni_'
'framleiðslust'
'framleiðslue'
'framkvæmdastjórn'
'framh'
'framangreindu'
'framangreind'
'fosa'
'forth'
'forset'
'forr'
'foreseeable_'
'force'
'forbl'
'foetal_'
'flyt'
'flugvöll'
'flugstjór'
'flugst'
'flugf'
'flugb'
'flokkun'
'flokks'
'flokkað'
'floc'
'flights_'
'flexib'
'flavouring'
'flau'
'flata'
'fjölgun'
'fjórum_'
'fjárhæðir'
'fjárfestingu_'
'fjárfestingarfyrirtæk'
'fjarskiptabúnað'
'firms_'
'firm'
'finger'
'fimmt'
'file'
'fift'
'fie'
'festa_'
'ferð'
'ferli'
'fengist_'
'fenginn'
'fengin'
'females_'
'fees_'
'features_'
'fau'
'fatty_'
'fasa'
'farþegaf'
'farðu_'
'farsím'
'farald'
'fannst'
'fanga'
'falls_'
'fagl'
'facts'
'eðlisfræðileg'
'eðlis_'
'eðlilegu'
'eyðu'
'eyst'
'eys'
'eye'
'extraction_'
'extra_'
'exti'
'explosive'
'execut'
'exclusively_'
'excipient'
'excessive'
'exceptional'
'exce'
'evrópskr'
'ev'
'etýlen'
'etra_'
'etion'
'etanól'
'etam'
'eta_'
'esta'
'ession_'
'esse'
'eró'
'erðing'
'ersi'
'error'
'erinar'
'ergy_'
'erfis'
'erb'
'epti'
'eous_'
'enó'
'ení'
'entries_'
'enterprise_'
'ensu'
'ensk'
'enr'
'enjoy'
'enic_'
'engines_'
'engine'
'engil'
'engaged_'
'enduru'
'endurs'
'endurheimt_'
'endurgreiðsl'
'ends'
'endor'
'enat'
'emtricitabine_'
'emtr'
'empty_'
'emergen'
'eliminat'
'elg'
'eldis_'
'eldi_'
'elat'
'eisl'
'einstöku'
'einst'
'einn'
'einhýdrat'
'eimt'
'eikn'
'eignu'
'ego'
'eggs_'
'eggjas'
'eftirlitssk'
'eftirlitsk'
'eftirlitsa'
'eftirli'
'efst'
'efnahagslega'
'efla'
'effic'
'efavírenz_'
'een'
'edge_'
'ear_'
'dótt'
'dómstóla'
'dómar'
'díoxíð'
'dæli'
'duct'
'dráttarvéla'
'drá'
'drop_'
'driv'
'dri_'
'drep_'
'doz'
'domina'
'divid'
'dita'
'distillation_'
'dissolved_'
'dispatch'
'discr'
'discharge_'
'disabl'
'directive'
'dinner_'
'digoxin_'
'digesti'
'diet_'
'dialysis_'
'dh'
'dge_'
'deyja_'
'derma'
'depends_'
'dential'
'denti'
'density_'
'deliver_'
'degrad'
'definit'
'defi'
'deduct'
'ded'
'decre'
'declare'
'decl'
'deadline'
'dates_'
'dark_'
'dari'
'dabrafenib'
'cítabín'
'cyli'
'cyclo'
'cutting_'
'ctor_'
'crystal'
'cript'
'creditor'
'credi'
'creation_'
'craft'
'cracke'
'coupling_'
'correction_'
'corrected_'
'corp'
'cool_'
'conventional_'
'consigne'
'consequen'
'congest'
'confusi'
'conflict'
'confidential_'
'confer'
'conduc'
'condi'
'concentrat'
'comprise_'
'complicat'
'complement'
'compl'
'compete'
'compensation_'
'compatible_'
'comparable_'
'compar'
'commenc'
'combat_'
'colog'
'collect_'
'coli'
'cod'
'coagulat'
'cloud'
'cloth'
'closporin_'
'climat'
'cki'
'citizens'
'cir'
'cine_'
'cid'
'cial_'
'ched_'
'character_'
'chara'
'chal'
'cepti'
'cem'
'cease'
'cau'
'catalyst'
'cata'
'cat_'
'carcinogenic'
'carcases_'
'carbam'
'capri'
'candi'
'camp'
'calibrati'
'búta'
'búsetu'
'búist_'
'bókun'
'bíða_'
'bílnum_'
'bæn'
'báðar_'
'byrg'
'buy'
'build_'
'broken_'
'brjóstakrabbamein'
'breytur'
'breytingar'
'breytin'
'bres'
'breidd_'
'braking_'
'brake'
'bragðefn'
'borrow'
'boo'
'boil'
'blóðstork'
'blóðflagnafæð'
'bláæða'
'bláæð'
'bles_'
'blendi'
'blað_'
'björgu'
'bitch_'
'bita'
'birgðir_'
'birds_'
'biom'
'bifreiða'
'betic'
'bes'
'berr'
'bek'
'beinmerg'
'begin'
'begg'
'beg'
'bbl'
'bath'
'bars'
'barkstera'
'bannað'
'bakterí'
'bakg'
'bag_'
'bacter'
'aðstæðu'
'aðlögunartíma'
'aðlögu'
'aði'
'aðfe'
'azo'
'azep'
'ay'
'axle_'
'award_'
'aval'
'auðvelda'
'autom'
'auti'
'authorisa'
'aum'
'aukna_'
'aukinna'
'aukin'
'augnl'
'auglýs'
'auditor'
'atvinnugreinu'
'ature_'
'atta'
'ator_'
'atkvæð'
'ational'
'athugu'
'athugan'
'así'
'asvi'
'assumption'
'assu'
'association_'
'assi'
'assess'
'asparta'
'aski'
'arþ'
'ary'
'artil'
'artificial_'
'artan'
'arsto'
'arrange'
'armál'
'arme'
'arlyf'
'arker'
'arch'
'araðil'
'arað'
'arat'
'approxi'
'approve_'
'appropriat'
'appetite_'
'apparent'
'ap_'
'anyway'
'anymore_'
'antiviral_'
'antiretroviral_'
'antin'
'antico'
'anosi'
'annex'
'ange'
'anavir'
'anaphyla'
'analyses_'
'amyn'
'amor'
'amma_'
'amide_'
'ameðferð_'
'alþjóðlegum_'
'alvarlegr'
'almennar_'
'almanaksár'
'allo'
'alkali'
'alið'
'alifugla'
'algjör'
'alger'
'algengar_'
'aleg'
'aldri'
'aldi'
'alcoholic_'
'akk'
'aker'
'aken'
'airports_'
'aimed_'
'agree_'
'agliptin'
'ager'
'ag_'
'afurði'
'afturköllun'
'afte'
'aflo'
'afleiðinga'
'afla'
'afl_'
'afg'
'afa_'
'aefn'
'advise_'
'ads'
'administering_'
'adju'
'addi'
'actu'
'accurate'
'accre'
'accidents_'
'accept_'
'accelerat'
'abuse'
'absorbe'
'absolute_'
'abre'
'abovementioned_'
'abnormalities'
'abir'
'abil'
']_'
'XI_'
'Would_'
'Von'
'Very_'
'Verk'
'Vac'
'VAT'
'VAN'
'Unless_'
'Ung'
'Under_'
'Uncle_'
'UNIT'
'UNECE_'
'Tím'
'Tí'
'Tæki'
'Tracto'
'Top'
'Tom'
'Text'
'Tegund'
'Tec'
'Tar'
'Tala'
'Takm'
'TN'
'TIL'
'TH_'
'TG'
'TF'
'TDF_'
'Sé'
'SÞ'
'Syn'
'Swed'
'Sure'
'Suppl'
'Supp'
'Subject'
'Stó'
'Stop_'
'Statistical'
'Spiromax_'
'Skrá_'
'Skipt'
'Skammta'
'Shi'
'Severe'
'Seven'
'Seri'
'Sem_'
'Scre'
'Scientific_'
'Sca'
'Sat'
'Samhliða_'
'Sambands'
'SR'
'SMEs_'
'SIS'
'Rö'
'Ráðstafanirnar_'
'Ráðlagður_'
'Roman'
'Ris'
'Reglugerð'
'Ref'
'Recommend'
'Rare_'
'Rapid_'
'Quali'
'Pó'
'Profe'
'Products_'
'Product_'
'Proce'
'Prepar'
'Power'
'Pot'
'Positi'
'Pop'
'Plus_'
'Phase_'
'Patient_'
'Park'
'PAT'
'Ork'
'Organisation_'
'Om'
'Office_'
'Odom'
'ORE'
'OM'
'OD'
'Nákvæm'
'Norð'
'Norma'
'Nic'
'Neti'
'Nef'
'Nafn'
'NK'
'NGAR'
'Mund'
'Mun'
'Ms_'
'Moreover_'
'Mom'
'Minnk'
'Mikil'
'Mass'
'Mas'
'Mart'
'Markmiðið_'
'Markaðs'
'Marc'
'Mara'
'MSC_'
'MP_'
'ML'
'MER'
'MARK'
'MAC'
'Lö'
'Lík'
'Lækn'
'Lyfjastofnun_'
'Lyfjas'
'Lyfjahvörf_'
'Lyfja'
'Losu'
'Lop'
'Long'
'Linco'
'Lie'
'Ley'
'Leflunomide_'
'Laus'
'Las'
'Lad'
'LF'
'Kos'
'Konur'
'Kon'
'King'
'KU'
'KN'
'KEN'
'Jerú'
'Jeru'
'JE'
'Investment'
'Insulin'
'Innan'
'Injection'
'Identification_'
'IZ'
'ISI'
'IONS'
'INT'
'INR_'
'ING_'
'INF'
'IER_'
'ID'
'Hættu_'
'Hy'
'Hvor'
'Hum'
'Hlutfall'
'Hjarta'
'Hin'
'High_'
'Hep'
'HS_'
'HC_'
'Góð'
'Gæt'
'Gran'
'Grade'
'Geym'
'Gefa_'
'Gama'
'GI_'
'GD'
'Förum_'
'Further'
'Fs_'
'Frank_'
'Fou'
'Forðast_'
'Flugrek'
'Flokkun_'
'Flest'
'Fla'
'Fjárh'
'Ferr'
'FU_'
'FU'
'FRAM'
'Eða_'
'Exte'
'Expo'
'Evrópus'
'Evrópub'
'Evróp'
'Every_'
'Envi'
'Eng'
'Enda'
'Eins'
'EVR'
'ETS'
'ESA_'
'EP_'
'EP'
'END'
'Dýra'
'Dæ'
'Drott'
'Don'
'Device'
'Dam'
'Dags'
'Cri'
'Consu'
'Conne'
'Condition'
'Combin'
'Colo'
'Chr'
'Chin'
'Check_'
'Centr'
'Cauca'
'Cas'
'Carte'
'Cam'
'CYP_'
'CO_'
'CL_'
'CC_'
'CAA'
'Bráð'
'Breytingar_'
'Breska_'
'Blood_'
'Bill'
'Best'
'Bei'
'Be_'
'Bank'
'Banda'
'BS'
'BR'
'Aðildarríkju'
'Aðferð'
'Aðeins_'
'Asse'
'App'
'Annual'
'Ani'
'Amen'
'Alþjóðaflugmálastofnun'
'Alvarleg'
'Afl'
'Aer'
'Adam_'
'Acco'
'AT_'
'AP_'
'ANNEX_'
'AC_'
'ACE'
'< _'
'<'
':'
'63'
'240_'
'....  _'
'.-_'
'.).'
'--  _'
', "_'
'+)'
') -'
'(*) _'
'%)._'
'$'
'"'
' ,'
' %.  _'
' %, _'
' %)'
'+'
'•'
'j'
':'
'?'
'!'
'„'
'~'
'['
'#'
'‘'
'µ'
'£'
'&'
'^'
'='
'}'
'|'
'‚'
'{'
'”'
'‛'
'’'
'´'
'¯'
'¥'
'@'
'\'
'
'
